alignas(8) const unsigned char g_person_detect_model_data[] = {
  0x1c, 0x00, 0x00, 0x00, 0x54, 0x46, 0x4c, 0x33, 0x14, 0x00, 0x20, 0x00,
  0x1c, 0x00, 0x18, 0x00, 0x14, 0x00, 0x10, 0x00, 0x0c, 0x00, 0x00, 0x00,
  0x08, 0x00, 0x04, 0x00, 0x14, 0x00, 0x00, 0x00, 0x1c, 0x00, 0x00, 0x00,
  0x90, 0x00, 0x00, 0x00, 0xe8, 0x00, 0x00, 0x00, 0xdc, 0x2d, 0x00, 0x00,
  0xec, 0x2d, 0x00, 0x00, 0x28, 0xa9, 0x00, 0x00, 0x03, 0x00, 0x00, 0x00,
  0x01, 0x00, 0x00, 0x00, 0x10, 0x00, 0x00, 0x00, 0x00, 0x00, 0x0a, 0x00,
  0x10, 0x00, 0x0c, 0x00, 0x08, 0x00, 0x04, 0x00, 0x0a, 0x00, 0x00, 0x00,
  0x0c, 0x00, 0x00, 0x00, 0x1c, 0x00, 0x00, 0x00, 0x38, 0x00, 0x00, 0x00,
  0x0f, 0x00, 0x00, 0x00, 0x73, 0x65, 0x72, 0x76, 0x69, 0x6e, 0x67, 0x5f,
  0x64, 0x65, 0x66, 0x61, 0x75, 0x6c, 0x74, 0x00, 0x01, 0x00, 0x00, 0x00,
  0x04, 0x00, 0x00, 0x00, 0x98, 0xff, 0xff, 0xff, 0x5a, 0x00, 0x00, 0x00,
  0x04, 0x00, 0x00, 0x00, 0x07, 0x00, 0x00, 0x00, 0x64, 0x65, 0x6e, 0x73,
  0x65, 0x5f, 0x38, 0x00, 0x01, 0x00, 0x00, 0x00, 0x04, 0x00, 0x00, 0x00,
  0xce, 0xd2, 0xff, 0xff, 0x04, 0x00, 0x00, 0x00, 0x08, 0x00, 0x00, 0x00,
  0x69, 0x6e, 0x70, 0x75, 0x74, 0x5f, 0x31, 0x30, 0x00, 0x00, 0x00, 0x00,
  0x02, 0x00, 0x00, 0x00, 0x34, 0x00, 0x00, 0x00, 0x04, 0x00, 0x00, 0x00,
  0xdc, 0xff, 0xff, 0xff, 0x5d, 0x00, 0x00, 0x00, 0x04, 0x00, 0x00, 0x00,
  0x13, 0x00, 0x00, 0x00, 0x43, 0x4f, 0x4e, 0x56, 0x45, 0x52, 0x53, 0x49,
  0x4f, 0x4e, 0x5f, 0x4d, 0x45, 0x54, 0x41, 0x44, 0x41, 0x54, 0x41, 0x00,
  0x08, 0x00, 0x0c, 0x00, 0x08, 0x00, 0x04, 0x00, 0x08, 0x00, 0x00, 0x00,
  0x5c, 0x00, 0x00, 0x00, 0x04, 0x00, 0x00, 0x00, 0x13, 0x00, 0x00, 0x00,
  0x6d, 0x69, 0x6e, 0x5f, 0x72, 0x75, 0x6e, 0x74, 0x69, 0x6d, 0x65, 0x5f,
  0x76, 0x65, 0x72, 0x73, 0x69, 0x6f, 0x6e, 0x00, 0x5e, 0x00, 0x00, 0x00,
  0xf0, 0x2c, 0x00, 0x00, 0xe8, 0x2c, 0x00, 0x00, 0xb8, 0x2c, 0x00, 0x00,
  0x98, 0x2c, 0x00, 0x00, 0x20, 0x2c, 0x00, 0x00, 0xe4, 0x21, 0x00, 0x00,
  0x08, 0x20, 0x00, 0x00, 0x2c, 0x1f, 0x00, 0x00, 0x24, 0x1f, 0x00, 0x00,
  0x1c, 0x1f, 0x00, 0x00, 0x10, 0x1a, 0x00, 0x00, 0x1c, 0x19, 0x00, 0x00,
  0x98, 0x16, 0x00, 0x00, 0xa4, 0x15, 0x00, 0x00, 0x20, 0x13, 0x00, 0x00,
  0x2c, 0x12, 0x00, 0x00, 0xa8, 0x0f, 0x00, 0x00, 0xb4, 0x0e, 0x00, 0x00,
  0x30, 0x0c, 0x00, 0x00, 0x3c, 0x0b, 0x00, 0x00, 0xb8, 0x08, 0x00, 0x00,
  0xc4, 0x07, 0x00, 0x00, 0x50, 0x07, 0x00, 0x00, 0x48, 0x07, 0x00, 0x00,
  0x40, 0x07, 0x00, 0x00, 0x38, 0x07, 0x00, 0x00, 0x30, 0x07, 0x00, 0x00,
  0x28, 0x07, 0x00, 0x00, 0x20, 0x07, 0x00, 0x00, 0x18, 0x07, 0x00, 0x00,
  0x10, 0x07, 0x00, 0x00, 0x08, 0x07, 0x00, 0x00, 0x00, 0x07, 0x00, 0x00,
  0xf8, 0x06, 0x00, 0x00, 0xbc, 0x05, 0x00, 0x00, 0x40, 0x05, 0x00, 0x00,
  0xa0, 0x04, 0x00, 0x00, 0x24, 0x04, 0x00, 0x00, 0xe4, 0x03, 0x00, 0x00,
  0xdc, 0x03, 0x00, 0x00, 0xd4, 0x03, 0x00, 0x00, 0xcc, 0x03, 0x00, 0x00,
  0x74, 0x03, 0x00, 0x00, 0x2c, 0x03, 0x00, 0x00, 0xf8, 0x02, 0x00, 0x00,
  0xb0, 0x02, 0x00, 0x00, 0x88, 0x02, 0x00, 0x00, 0x80, 0x02, 0x00, 0x00,
  0x78, 0x02, 0x00, 0x00, 0x70, 0x02, 0x00, 0x00, 0x4c, 0x02, 0x00, 0x00,
  0x20, 0x02, 0x00, 0x00, 0x04, 0x02, 0x00, 0x00, 0xfc, 0x01, 0x00, 0x00,
  0xe8, 0x01, 0x00, 0x00, 0xcc, 0x01, 0x00, 0x00, 0xb8, 0x01, 0x00, 0x00,
  0xb0, 0x01, 0x00, 0x00, 0x94, 0x01, 0x00, 0x00, 0x8c, 0x01, 0x00, 0x00,
  0x84, 0x01, 0x00, 0x00, 0x7c, 0x01, 0x00, 0x00, 0x74, 0x01, 0x00, 0x00,
  0x6c, 0x01, 0x00, 0x00, 0x64, 0x01, 0x00, 0x00, 0x5c, 0x01, 0x00, 0x00,
  0x54, 0x01, 0x00, 0x00, 0x4c, 0x01, 0x00, 0x00, 0x44, 0x01, 0x00, 0x00,
  0x3c, 0x01, 0x00, 0x00, 0x34, 0x01, 0x00, 0x00, 0x2c, 0x01, 0x00, 0x00,
  0x24, 0x01, 0x00, 0x00, 0x1c, 0x01, 0x00, 0x00, 0x14, 0x01, 0x00, 0x00,
  0x0c, 0x01, 0x00, 0x00, 0x04, 0x01, 0x00, 0x00, 0xfc, 0x00, 0x00, 0x00,
  0xf4, 0x00, 0x00, 0x00, 0xec, 0x00, 0x00, 0x00, 0xe4, 0x00, 0x00, 0x00,
  0xdc, 0x00, 0x00, 0x00, 0xd4, 0x00, 0x00, 0x00, 0xcc, 0x00, 0x00, 0x00,
  0xc4, 0x00, 0x00, 0x00, 0xbc, 0x00, 0x00, 0x00, 0xb4, 0x00, 0x00, 0x00,
  0xac, 0x00, 0x00, 0x00, 0xa4, 0x00, 0x00, 0x00, 0x9c, 0x00, 0x00, 0x00,
  0x94, 0x00, 0x00, 0x00, 0x8c, 0x00, 0x00, 0x00, 0x6c, 0x00, 0x00, 0x00,
  0x04, 0x00, 0x00, 0x00, 0xbe, 0xd4, 0xff, 0xff, 0x04, 0x00, 0x00, 0x00,
  0x58, 0x00, 0x00, 0x00, 0x0c, 0x00, 0x00, 0x00, 0x08, 0x00, 0x0e, 0x00,
  0x08, 0x00, 0x04, 0x00, 0x08, 0x00, 0x00, 0x00, 0x10, 0x00, 0x00, 0x00,
  0x28, 0x00, 0x00, 0x00, 0x00, 0x00, 0x06, 0x00, 0x08, 0x00, 0x04, 0x00,
  0x06, 0x00, 0x00, 0x00, 0x04, 0x00, 0x00, 0x00, 0x01, 0x00, 0x00, 0x00,
  0xeb, 0x03, 0x00, 0x00, 0x00, 0x00, 0x0a, 0x00, 0x10, 0x00, 0x0c, 0x00,
  0x08, 0x00, 0x04, 0x00, 0x0a, 0x00, 0x00, 0x00, 0x02, 0x00, 0x00, 0x00,
  0x02, 0x00, 0x00, 0x00, 0x04, 0x00, 0x00, 0x00, 0x06, 0x00, 0x00, 0x00,
  0x32, 0x2e, 0x31, 0x35, 0x2e, 0x30, 0x00, 0x00, 0x22, 0xd5, 0xff, 0xff,
  0x04, 0x00, 0x00, 0x00, 0x10, 0x00, 0x00, 0x00, 0x31, 0x2e, 0x31, 0x34,
  0x2e, 0x30, 0x00, 0x00, 0x00, 0x00, 0x00, 0x00, 0x00, 0x00, 0x00, 0x00,
  0x98, 0x5a, 0xff, 0xff, 0x9c, 0x5a, 0xff, 0xff, 0xa0, 0x5a, 0xff, 0xff,
  0xa4, 0x5a, 0xff, 0xff, 0xa8, 0x5a, 0xff, 0xff, 0xac, 0x5a, 0xff, 0xff,
  0xb0, 0x5a, 0xff, 0xff, 0xb4, 0x5a, 0xff, 0xff, 0xb8, 0x5a, 0xff, 0xff,
  0xbc, 0x5a, 0xff, 0xff, 0xc0, 0x5a, 0xff, 0xff, 0xc4, 0x5a, 0xff, 0xff,
  0xc8, 0x5a, 0xff, 0xff, 0xcc, 0x5a, 0xff, 0xff, 0xd0, 0x5a, 0xff, 0xff,
  0xd4, 0x5a, 0xff, 0xff, 0xd8, 0x5a, 0xff, 0xff, 0xdc, 0x5a, 0xff, 0xff,
  0xe0, 0x5a, 0xff, 0xff, 0xe4, 0x5a, 0xff, 0xff, 0xe8, 0x5a, 0xff, 0xff,
  0xec, 0x5a, 0xff, 0xff, 0xf0, 0x5a, 0xff, 0xff, 0xf4, 0x5a, 0xff, 0xff,
  0xf8, 0x5a, 0xff, 0xff, 0xfc, 0x5a, 0xff, 0xff, 0x00, 0x5b, 0xff, 0xff,
  0x04, 0x5b, 0xff, 0xff, 0x08, 0x5b, 0xff, 0xff, 0x0c, 0x5b, 0xff, 0xff,
  0x10, 0x5b, 0xff, 0xff, 0x14, 0x5b, 0xff, 0xff, 0x18, 0x5b, 0xff, 0xff,
  0xc2, 0xd5, 0xff, 0xff, 0x04, 0x00, 0x00, 0x00, 0x09, 0x00, 0x00, 0x00,
  0xf6, 0x7e, 0x7f, 0x4a, 0x66, 0xc4, 0xaf, 0x67, 0x30, 0x00, 0x00, 0x00,
  0x34, 0x5b, 0xff, 0xff, 0xde, 0xd5, 0xff, 0xff, 0x04, 0x00, 0x00, 0x00,
  0x04, 0x00, 0x00, 0x00, 0x00, 0x00, 0x00, 0x00, 0xee, 0xd5, 0xff, 0xff,
  0x04, 0x00, 0x00, 0x00, 0x09, 0x00, 0x00, 0x00, 0x7f, 0x04, 0xd6, 0x07,
  0xdc, 0x01, 0x9c, 0x5f, 0x66, 0x00, 0x00, 0x00, 0x06, 0xd6, 0xff, 0xff,
  0x04, 0x00, 0x00, 0x00, 0x03, 0x00, 0x00, 0x00, 0x81, 0x81, 0x7f, 0x00,
  0x70, 0x5b, 0xff, 0xff, 0x1a, 0xd6, 0xff, 0xff, 0x04, 0x00, 0x00, 0x00,
  0x0c, 0x00, 0x00, 0x00, 0x00, 0x00, 0x00, 0x00, 0x00, 0x00, 0x00, 0x00,
  0x00, 0x00, 0x00, 0x00, 0x32, 0xd6, 0xff, 0xff, 0x04, 0x00, 0x00, 0x00,
  0x1b, 0x00, 0x00, 0x00, 0x79, 0x46, 0x81, 0x4a, 0xae, 0x88, 0xa6, 0x54,
  0x4d, 0xfb, 0xa6, 0x71, 0xef, 0xf3, 0xfd, 0x81, 0x51, 0x59, 0xc8, 0x39,
  0xc5, 0x82, 0x49, 0x8e, 0x3a, 0x81, 0xbf, 0x00, 0x5a, 0xd6, 0xff, 0xff,
  0x04, 0x00, 0x00, 0x00, 0x12, 0x00, 0x00, 0x00, 0x5c, 0xd2, 0x7f, 0x91,
  0x8c, 0x7f, 0x83, 0x89, 0x7f, 0x06, 0x81, 0x58, 0x7f, 0xc4, 0x9d, 0xfb,
  0x81, 0x12, 0x00, 0x00, 0xd4, 0x5b, 0xff, 0xff, 0xd8, 0x5b, 0xff, 0xff,
  0xdc, 0x5b, 0xff, 0xff, 0x86, 0xd6, 0xff, 0xff, 0x04, 0x00, 0x00, 0x00,
  0x18, 0x00, 0x00, 0x00, 0x00, 0x00, 0x00, 0x00, 0x00, 0x00, 0x00, 0x00,
  0x00, 0x00, 0x00, 0x00, 0x00, 0x00, 0x00, 0x00, 0x00, 0x00, 0x00, 0x00,
  0x00, 0x00, 0x00, 0x00, 0xaa, 0xd6, 0xff, 0xff, 0x04, 0x00, 0x00, 0x00,
  0x36, 0x00, 0x00, 0x00, 0x43, 0x87, 0x01, 0x98, 0xd9, 0xd2, 0xc9, 0x1e,
  0xbf, 0x7f, 0x60, 0x1b, 0xd9, 0x92, 0xfa, 0x3b, 0xa3, 0x07, 0x7d, 0x3e,
  0xdd, 0xa3, 0x59, 0x23, 0x8c, 0x81, 0x78, 0xa0, 0xdc, 0x7f, 0xca, 0xe6,
  0xad, 0x02, 0x64, 0x8f, 0x7f, 0xb9, 0x00, 0x4e, 0x7f, 0x0e, 0x0c, 0x3e,
  0x7e, 0x81, 0xd4, 0x48, 0x2e, 0x48, 0x81, 0xa9, 0x31, 0x2a, 0x00, 0x00,
  0xee, 0xd6, 0xff, 0xff, 0x04, 0x00, 0x00, 0x00, 0x24, 0x00, 0x00, 0x00,
  0x97, 0x81, 0x6c, 0xc2, 0x60, 0xa3, 0x7f, 0x24, 0x84, 0xfb, 0x3d, 0x32,
  0x38, 0x01, 0x08, 0x7a, 0x7f, 0xe8, 0xc6, 0x6f, 0xf2, 0x7f, 0xdf, 0x20,
  0x00, 0x42, 0x93, 0x7f, 0xdc, 0x02, 0x81, 0xe5, 0x26, 0x00, 0xff, 0x20,
  0x1e, 0xd7, 0xff, 0xff, 0x04, 0x00, 0x00, 0x00, 0x36, 0x00, 0x00, 0x00,
  0x43, 0xff, 0x78, 0xf3, 0x3c, 0xd6, 0x7e, 0x33, 0xeb, 0xd9, 0x4d, 0xf2,
  0x77, 0xc5, 0xbc, 0x67, 0xa1, 0x3c, 0x9c, 0x19, 0x7f, 0x73, 0xab, 0x40,
  0x81, 0xdb, 0x5e, 0x9d, 0xb3, 0x54, 0xce, 0x7f, 0x9a, 0x81, 0x13, 0x81,
  0x7a, 0x93, 0x58, 0xe0, 0x95, 0x94, 0x28, 0x7b, 0x2f, 0xfc, 0x81, 0x64,
  0x29, 0x54, 0x28, 0x8b, 0xd8, 0x37, 0x00, 0x00, 0x62, 0xd7, 0xff, 0xff,
  0x04, 0x00, 0x00, 0x00, 0x48, 0x00, 0x00, 0x00, 0x6c, 0x0b, 0xeb, 0x81,
  0x73, 0x29, 0x2d, 0xab, 0x54, 0x43, 0x7f, 0xd3, 0x6e, 0x96, 0x56, 0x89,
  0x01, 0x81, 0xd5, 0x7d, 0x7f, 0x8f, 0xd0, 0x95, 0xdf, 0xb2, 0x21, 0x81,
  0x25, 0xc4, 0x7f, 0x30, 0xb4, 0xb4, 0x2c, 0x71, 0x93, 0xa3, 0xae, 0xc6,
  0x7f, 0x69, 0xe2, 0x81, 0xfc, 0x46, 0x2d, 0xf2, 0x7f, 0xf8, 0x81, 0x2c,
  0xfa, 0x62, 0x2a, 0x8a, 0x74, 0x68, 0x81, 0x31, 0x7f, 0x50, 0xd0, 0x62,
  0x2d, 0xc3, 0x81, 0x84, 0x23, 0x09, 0xe7, 0xf3, 0x10, 0x5d, 0xff, 0xff,
  0x14, 0x5d, 0xff, 0xff, 0x18, 0x5d, 0xff, 0xff, 0xc2, 0xd7, 0xff, 0xff,
  0x04, 0x00, 0x00, 0x00, 0x30, 0x00, 0x00, 0x00, 0x00, 0x00, 0x00, 0x00,
  0x00, 0x00, 0x00, 0x00, 0x00, 0x00, 0x00, 0x00, 0x00, 0x00, 0x00, 0x00,
  0x00, 0x00, 0x00, 0x00, 0x00, 0x00, 0x00, 0x00, 0x00, 0x00, 0x00, 0x00,
  0x00, 0x00, 0x00, 0x00, 0x00, 0x00, 0x00, 0x00, 0x00, 0x00, 0x00, 0x00,
  0x00, 0x00, 0x00, 0x00, 0x00, 0x00, 0x00, 0x00, 0xfe, 0xd7, 0xff, 0xff,
  0x04, 0x00, 0x00, 0x00, 0x6c, 0x00, 0x00, 0x00, 0x6f, 0x01, 0xe9, 0xd3,
  0xfa, 0x99, 0x15, 0x48, 0x7f, 0xd5, 0x17, 0xdd, 0x37, 0x81, 0x60, 0x6a,
  0x52, 0x7f, 0xb2, 0x0a, 0x7f, 0x10, 0x1f, 0x43, 0x56, 0xfd, 0x25, 0x6c,
  0x0b, 0x9b, 0x79, 0x39, 0x73, 0x81, 0x35, 0xe0, 0xb0, 0xa8, 0xe9, 0x7f,
  0x07, 0x16, 0x44, 0x71, 0x73, 0x53, 0xbb, 0x7f, 0xd7, 0xb4, 0xf6, 0x89,
  0xf7, 0x62, 0x81, 0x7b, 0x12, 0xb6, 0x7e, 0x30, 0xc7, 0xa4, 0x76, 0xca,
  0x40, 0x25, 0x3a, 0x57, 0xbd, 0xb8, 0x1f, 0x76, 0x26, 0xa9, 0xf4, 0x84,
  0x81, 0x75, 0x95, 0x81, 0x72, 0xf9, 0x86, 0x2e, 0x7f, 0x8b, 0xa5, 0x61,
  0x4a, 0x94, 0x0c, 0xd4, 0x79, 0xd9, 0x05, 0xa3, 0xd6, 0x58, 0x7f, 0xf7,
  0x0e, 0x27, 0xa0, 0x27, 0x51, 0x76, 0x7f, 0x1a, 0x76, 0xd8, 0xff, 0xff,
  0x04, 0x00, 0x00, 0x00, 0x90, 0x00, 0x00, 0x00, 0xd4, 0x22, 0xa0, 0xd4,
  0xd1, 0x81, 0x60, 0x41, 0x46, 0x65, 0x9a, 0xa9, 0x21, 0xb1, 0x49, 0x9f,
  0xf0, 0x5b, 0x5a, 0x3c, 0x7f, 0x00, 0x6a, 0xf2, 0xf7, 0xf3, 0x0b, 0x34,
  0x5b, 0x6e, 0x58, 0xea, 0xd2, 0xac, 0xb9, 0x7f, 0x76, 0x4f, 0x53, 0xa7,
  0x94, 0x9d, 0x81, 0x08, 0xf0, 0x27, 0x42, 0x44, 0x3f, 0x4c, 0x57, 0x81,
  0x72, 0x88, 0xe3, 0x08, 0x99, 0xe0, 0xd3, 0x71, 0xe0, 0xe5, 0xd6, 0xb9,
  0xcf, 0x5f, 0x7c, 0x20, 0x26, 0x7f, 0x94, 0xa1, 0x7f, 0x81, 0x72, 0xd0,
  0x3d, 0xe0, 0xa2, 0xc2, 0x20, 0x6f, 0x6c, 0x61, 0x5e, 0xc3, 0x10, 0xcf,
  0x09, 0x81, 0x39, 0x3a, 0x5d, 0x75, 0xb7, 0x88, 0xed, 0x81, 0x66, 0x4f,
  0x3c, 0x61, 0x1f, 0x43, 0x0a, 0x21, 0x48, 0x7c, 0x1a, 0x67, 0x3a, 0xbc,
  0xab, 0x7f, 0xd3, 0xdc, 0xbf, 0xc6, 0xc3, 0x30, 0xaa, 0x41, 0x4d, 0xc6,
  0xec, 0xc8, 0x6b, 0xb3, 0x1c, 0x8a, 0x7f, 0x51, 0x33, 0x14, 0xf1, 0xec,
  0x2d, 0x4e, 0xe9, 0x85, 0x58, 0x8d, 0x81, 0x7c, 0x12, 0xd9, 0xff, 0xff,
  0x04, 0x00, 0x00, 0x00, 0x6c, 0x00, 0x00, 0x00, 0xe7, 0xcd, 0x03, 0x7f,
  0x86, 0x2d, 0xc8, 0x43, 0x95, 0x36, 0x1a, 0x3a, 0xca, 0xac, 0xe8, 0xdc,
  0x71, 0xa7, 0x12, 0x78, 0xe0, 0x87, 0x6e, 0xad, 0x72, 0xea, 0xf5, 0xed,
  0xd2, 0x29, 0x1e, 0xa4, 0x7f, 0x4a, 0xfb, 0x89, 0x8a, 0x7f, 0x70, 0xcc,
  0x20, 0x81, 0xc5, 0xeb, 0xbb, 0x5a, 0x2d, 0x08, 0xcc, 0xdb, 0xab, 0xfc,
  0x9f, 0xf8, 0xea, 0xf9, 0x83, 0x9a, 0x81, 0x81, 0x7f, 0x82, 0x9e, 0x32,
  0x2a, 0xbe, 0x7f, 0x57, 0x43, 0xf9, 0xac, 0x15, 0x18, 0x6a, 0xe7, 0x2d,
  0x8e, 0xca, 0xb6, 0x85, 0x06, 0x28, 0x62, 0x07, 0x14, 0xd0, 0x7f, 0x18,
  0x7f, 0xb2, 0x01, 0xa5, 0xd2, 0x07, 0x00, 0xf9, 0x25, 0xd9, 0x26, 0x79,
  0x99, 0x55, 0xe7, 0x81, 0x1d, 0x7f, 0x48, 0x4c, 0x8a, 0xd9, 0xff, 0xff,
  0x04, 0x00, 0x00, 0x00, 0x2c, 0x01, 0x00, 0x00, 0x42, 0x63, 0xda, 0x23,
  0x18, 0x66, 0x11, 0xc0, 0x7f, 0xac, 0x89, 0x50, 0x46, 0x1d, 0x08, 0x4c,
  0x81, 0x67, 0x63, 0x38, 0xa5, 0xa8, 0xf1, 0xe1, 0xb0, 0x87, 0x51, 0x20,
  0x46, 0x3b, 0x7f, 0x8e, 0xb6, 0x1b, 0xd3, 0x8c, 0xfa, 0x8f, 0x81, 0xc5,
  0x66, 0xd4, 0xac, 0x78, 0xed, 0x1b, 0x5a, 0x24, 0x7b, 0xdd, 0x1d, 0x5a,
  0x51, 0x86, 0x91, 0x81, 0xfb, 0x60, 0x39, 0x6d, 0xa9, 0x46, 0xf1, 0xa2,
  0x76, 0xcc, 0x4e, 0x88, 0x52, 0xe8, 0x81, 0x2c, 0x36, 0x7f, 0x0f, 0x7a,
  0x11, 0xb6, 0xc8, 0x99, 0x3a, 0x8c, 0x1c, 0x2e, 0x4f, 0x9f, 0x02, 0xb6,
  0xad, 0x7f, 0x12, 0x78, 0x0b, 0xe0, 0x9c, 0x4d, 0x9b, 0xe0, 0x47, 0xd1,
  0x81, 0x26, 0x22, 0x60, 0x92, 0xdd, 0xa8, 0xa3, 0xa9, 0xbe, 0x55, 0x70,
  0x55, 0xd4, 0x7f, 0x8d, 0x2f, 0x53, 0xd1, 0xe1, 0xa4, 0xc1, 0x65, 0x81,
  0xfe, 0x3c, 0x9a, 0x12, 0x83, 0xd4, 0x1b, 0xee, 0xe1, 0x15, 0x81, 0x4e,
  0x90, 0x6b, 0x40, 0x40, 0xeb, 0x3a, 0x83, 0x45, 0x77, 0x6c, 0x58, 0x22,
  0x0b, 0x81, 0xd9, 0x58, 0xf0, 0xc0, 0xe4, 0x6c, 0x81, 0x6f, 0x46, 0x07,
  0x18, 0xef, 0x26, 0x28, 0x6f, 0x3b, 0x33, 0x24, 0xb3, 0xe5, 0xa6, 0xf8,
  0x6f, 0x0a, 0x03, 0xf0, 0x83, 0x9d, 0x34, 0x81, 0xb5, 0x43, 0x4f, 0xa3,
  0xce, 0xa5, 0xdd, 0x1b, 0xb8, 0xfb, 0x35, 0x7f, 0x13, 0x28, 0x7f, 0x77,
  0x68, 0xd2, 0x56, 0x3d, 0xbf, 0x7a, 0xd3, 0xf9, 0xc3, 0x81, 0xbb, 0x97,
  0xc7, 0x60, 0x0a, 0x53, 0xf7, 0xe1, 0x5d, 0xb9, 0x81, 0xf9, 0x38, 0xe8,
  0x2b, 0x16, 0xf5, 0xf5, 0x1e, 0x5a, 0xe9, 0x46, 0xe4, 0xdf, 0x97, 0x36,
  0x81, 0x32, 0xbe, 0xab, 0x50, 0xce, 0xbe, 0x40, 0xb8, 0x55, 0x81, 0xbc,
  0x8e, 0x6b, 0x26, 0x29, 0x05, 0xef, 0x16, 0x50, 0x6d, 0xf2, 0x53, 0xb8,
  0x34, 0x7f, 0xca, 0x55, 0x29, 0x03, 0x33, 0xbc, 0xa2, 0x10, 0x7f, 0xfa,
  0xf4, 0xe0, 0x82, 0x2d, 0xbc, 0x79, 0x08, 0xb4, 0x41, 0xc1, 0x69, 0x7f,
  0x12, 0x7f, 0xf5, 0x4f, 0xda, 0x63, 0xcd, 0x3c, 0x3b, 0x86, 0x2f, 0xcc,
  0xca, 0xfc, 0xa4, 0x62, 0x34, 0x3f, 0x54, 0x81, 0x1c, 0x60, 0xff, 0xff,
  0x20, 0x60, 0xff, 0xff, 0x24, 0x60, 0xff, 0xff, 0x28, 0x60, 0xff, 0xff,
  0x2c, 0x60, 0xff, 0xff, 0x30, 0x60, 0xff, 0xff, 0x34, 0x60, 0xff, 0xff,
  0x38, 0x60, 0xff, 0xff, 0x3c, 0x60, 0xff, 0xff, 0x40, 0x60, 0xff, 0xff,
  0x44, 0x60, 0xff, 0xff, 0xee, 0xda, 0xff, 0xff, 0x04, 0x00, 0x00, 0x00,
  0x64, 0x00, 0x00, 0x00, 0x00, 0x00, 0x00, 0x00, 0x00, 0x00, 0x00, 0x00,
  0x00, 0x00, 0x00, 0x00, 0x00, 0x00, 0x00, 0x00, 0x00, 0x00, 0x00, 0x00,
  0x00, 0x00, 0x00, 0x00, 0x00, 0x00, 0x00, 0x00, 0x00, 0x00, 0x00, 0x00,
  0x00, 0x00, 0x00, 0x00, 0x00, 0x00, 0x00, 0x00, 0x00, 0x00, 0x00, 0x00,
  0x00, 0x00, 0x00, 0x00, 0x00, 0x00, 0x00, 0x00, 0x00, 0x00, 0x00, 0x00,
  0x00, 0x00, 0x00, 0x00, 0x00, 0x00, 0x00, 0x00, 0x00, 0x00, 0x00, 0x00,
  0x00, 0x00, 0x00, 0x00, 0x00, 0x00, 0x00, 0x00, 0x00, 0x00, 0x00, 0x00,
  0x00, 0x00, 0x00, 0x00, 0x00, 0x00, 0x00, 0x00, 0x00, 0x00, 0x00, 0x00,
  0x00, 0x00, 0x00, 0x00, 0x00, 0x00, 0x00, 0x00, 0x5e, 0xdb, 0xff, 0xff,
  0x04, 0x00, 0x00, 0x00, 0xe1, 0x00, 0x00, 0x00, 0x4d, 0x0c, 0x45, 0x20,
  0x23, 0xe5, 0x14, 0x4b, 0x18, 0x9a, 0x03, 0xb8, 0xf8, 0xf4, 0xfe, 0xf1,
  0x81, 0xd5, 0x91, 0x77, 0x59, 0xde, 0x03, 0xe2, 0x81, 0x36, 0x81, 0x91,
  0x4c, 0xac, 0x07, 0xdf, 0xfe, 0x6a, 0x81, 0x85, 0x7f, 0x90, 0x7f, 0x3d,
  0x7a, 0x78, 0x75, 0x99, 0x3c, 0x48, 0x9d, 0x9f, 0x67, 0x33, 0x7e, 0x91,
  0xf8, 0x6c, 0x81, 0xa5, 0x9a, 0xab, 0xac, 0x92, 0xbc, 0xc3, 0x88, 0xd9,
  0x11, 0x7f, 0x09, 0x7f, 0x9d, 0x49, 0xc2, 0x32, 0xad, 0x7f, 0x30, 0x4c,
  0xab, 0xa2, 0x51, 0xe3, 0x81, 0xa7, 0xa8, 0x60, 0x62, 0x6e, 0x47, 0xe8,
  0x3b, 0x06, 0x31, 0xea, 0x3c, 0xdf, 0x00, 0x97, 0xcc, 0xf0, 0x4e, 0xf7,
  0xda, 0x8a, 0x50, 0x92, 0xa9, 0xbe, 0x6c, 0x83, 0xe8, 0x69, 0x0e, 0x21,
  0x7f, 0x1f, 0x73, 0xdc, 0x28, 0x94, 0xca, 0x81, 0x00, 0x62, 0xdc, 0xf7,
  0x66, 0x4c, 0x3c, 0x0a, 0x1a, 0xe4, 0xb6, 0x81, 0x4d, 0x97, 0xf8, 0x81,
  0xdb, 0xc7, 0x32, 0x44, 0xfa, 0x14, 0x34, 0x9d, 0x5a, 0x81, 0xfd, 0x32,
  0x70, 0xa7, 0x7f, 0x7e, 0x81, 0xed, 0x67, 0x6c, 0x35, 0x7f, 0xc5, 0xef,
  0x25, 0xf3, 0x53, 0xa0, 0x26, 0xfa, 0x36, 0x9f, 0xad, 0xba, 0x8c, 0x7f,
  0x81, 0x02, 0xac, 0xd6, 0x33, 0x24, 0x7f, 0x61, 0x42, 0x89, 0xc8, 0x7f,
  0x5e, 0x4c, 0x8d, 0x78, 0x5f, 0x7f, 0xba, 0xed, 0x0d, 0x2e, 0x89, 0x2f,
  0xd6, 0x30, 0xe5, 0x18, 0x38, 0xc0, 0xa0, 0x4e, 0x52, 0x8a, 0xef, 0x4b,
  0x19, 0x44, 0x59, 0x95, 0x88, 0x2b, 0x2a, 0x8c, 0x72, 0x20, 0x7f, 0x7c,
  0x3f, 0xaa, 0x42, 0x89, 0x4c, 0x00, 0x00, 0x00, 0x4e, 0xdc, 0xff, 0xff,
  0x04, 0x00, 0x00, 0x00, 0x71, 0x02, 0x00, 0x00, 0x36, 0x78, 0x43, 0x81,
  0xf9, 0x4a, 0xe0, 0x00, 0x1f, 0x50, 0x1b, 0xa7, 0x70, 0x7a, 0x3a, 0x55,
  0x69, 0xd9, 0x69, 0x0d, 0x1b, 0x7d, 0xae, 0x92, 0x83, 0xd5, 0x9a, 0x3d,
  0x72, 0xf5, 0x7f, 0xb0, 0xd4, 0x82, 0x3a, 0x47, 0xcd, 0xe7, 0xb2, 0x44,
  0x7a, 0x34, 0xec, 0xf6, 0x75, 0x3c, 0x12, 0xda, 0x15, 0x0f, 0x05, 0x78,
  0x66, 0x11, 0x43, 0x41, 0xe0, 0x3e, 0x23, 0x41, 0x4a, 0x7f, 0xc8, 0x9e,
  0x0c, 0xdf, 0x41, 0x48, 0x8b, 0x88, 0x88, 0x07, 0x43, 0xc6, 0x6b, 0x60,
  0x22, 0x1a, 0xde, 0x54, 0x7f, 0x0f, 0xff, 0xc4, 0xa6, 0xd6, 0x52, 0x95,
  0xc0, 0xb0, 0xf5, 0x68, 0x1a, 0x1b, 0x8d, 0x3f, 0x0d, 0xcd, 0xc5, 0xad,
  0x94, 0x6c, 0xcb, 0x7a, 0x6c, 0xd0, 0x12, 0xca, 0x12, 0x5f, 0xb0, 0xf1,
  0x48, 0x84, 0x8d, 0x3b, 0x12, 0xaf, 0xe2, 0xf8, 0xed, 0x7c, 0x81, 0xb2,
  0xfb, 0xa5, 0x7f, 0xb7, 0x7f, 0xc3, 0xd6, 0x4d, 0x1d, 0xae, 0x71, 0x2e,
  0xa7, 0x24, 0xa6, 0x94, 0xb6, 0xdc, 0xd6, 0x31, 0xf0, 0x38, 0x97, 0xc1,
  0x46, 0x70, 0x86, 0x4b, 0xa0, 0xc6, 0xaa, 0x54, 0x4b, 0x34, 0x85, 0xc1,
  0xf0, 0xbe, 0xe6, 0xcb, 0x93, 0x4b, 0x5e, 0x7e, 0x13, 0xd1, 0x5d, 0xb6,
  0xd2, 0x0f, 0x81, 0xe1, 0xd3, 0xb4, 0x62, 0x47, 0x71, 0xcd, 0x7f, 0x17,
  0x56, 0x2b, 0xb3, 0x0c, 0xf1, 0xb0, 0xb2, 0x5b, 0xe7, 0x39, 0x5a, 0xbf,
  0x5c, 0x9d, 0xdc, 0xab, 0x60, 0x68, 0x88, 0xc3, 0x00, 0x9d, 0xf1, 0xb7,
  0x99, 0xc6, 0x36, 0x70, 0x7f, 0xad, 0x5f, 0x89, 0x73, 0xdd, 0xa2, 0xcc,
  0xea, 0xd9, 0x0e, 0xe1, 0x70, 0x7f, 0xe3, 0x36, 0x06, 0xb8, 0x55, 0xfd,
  0xcb, 0x15, 0xbc, 0x3c, 0x43, 0x69, 0x84, 0x52, 0xf0, 0xeb, 0x9b, 0xcf,
  0x21, 0x99, 0x81, 0x71, 0xa7, 0x44, 0x43, 0x11, 0xf6, 0x2b, 0x1b, 0x81,
  0xe1, 0x8a, 0xa5, 0x2d, 0xe4, 0x7d, 0xf9, 0xdf, 0x4e, 0x3b, 0x16, 0xae,
  0x5e, 0xf1, 0x10, 0xe0, 0xa3, 0xe9, 0x51, 0x49, 0x5e, 0x9a, 0x4d, 0xce,
  0x79, 0xcc, 0xe9, 0x45, 0xf1, 0x7f, 0x7b, 0xcb, 0x43, 0x85, 0x0c, 0x50,
  0x30, 0x64, 0x41, 0xed, 0xb2, 0x3a, 0xcf, 0xed, 0x4f, 0x4c, 0x04, 0x38,
  0x7a, 0x3c, 0x2a, 0x91, 0x77, 0xcd, 0x08, 0x9c, 0x26, 0x94, 0x57, 0xc8,
  0x64, 0xc1, 0x7f, 0x7e, 0xa0, 0x12, 0x91, 0x77, 0x95, 0xc2, 0xcb, 0x61,
  0x35, 0x1c, 0x89, 0x4f, 0x3c, 0x54, 0x72, 0xf3, 0x89, 0x81, 0x42, 0xdc,
  0x45, 0x6f, 0x14, 0xef, 0x71, 0xfe, 0xc6, 0xa2, 0x84, 0x00, 0xaa, 0x4d,
  0xee, 0x81, 0x61, 0xee, 0x02, 0xec, 0xaf, 0x44, 0x02, 0xc6, 0x6c, 0x53,
  0xd0, 0x4c, 0x54, 0xc4, 0x5f, 0x91, 0x5f, 0xaa, 0xd0, 0x9a, 0xc2, 0xa3,
  0x20, 0xc3, 0xd3, 0xcc, 0xc5, 0x43, 0xe1, 0x1f, 0xd0, 0x06, 0xb7, 0x1b,
  0xb9, 0x7f, 0x77, 0xd7, 0x5d, 0xfb, 0xff, 0xd8, 0x31, 0x01, 0x78, 0x44,
  0xc2, 0x12, 0x66, 0x1c, 0x00, 0xa1, 0xf1, 0x29, 0x7f, 0x38, 0x6b, 0x88,
  0xb9, 0xe5, 0xf3, 0x2e, 0x23, 0x4d, 0xc5, 0xcf, 0x9a, 0x61, 0x7c, 0xdb,
  0xec, 0xeb, 0xa7, 0xc3, 0xff, 0x81, 0xe2, 0x89, 0xcf, 0x76, 0x7a, 0xe7,
  0x94, 0x8f, 0x01, 0xbc, 0x37, 0xb3, 0x44, 0xd0, 0x6f, 0x07, 0x3e, 0x2d,
  0x1d, 0xe3, 0x43, 0xff, 0xf6, 0xbf, 0x2c, 0x9a, 0xe8, 0x35, 0x23, 0x15,
  0xc9, 0xd9, 0x03, 0xdf, 0xdc, 0x34, 0xad, 0x81, 0xe6, 0x50, 0x29, 0x9c,
  0x47, 0xda, 0x3a, 0xc6, 0x17, 0x25, 0xc2, 0x15, 0x54, 0xf1, 0x3d, 0xca,
  0x31, 0xeb, 0x98, 0x26, 0x81, 0x12, 0xca, 0x51, 0xa4, 0x31, 0x7d, 0x4e,
  0x63, 0x90, 0x54, 0xf8, 0xc8, 0xb3, 0xbe, 0xe3, 0x7f, 0x38, 0xf7, 0xc6,
  0xaa, 0x95, 0xe5, 0x50, 0x32, 0x29, 0x86, 0xdf, 0x2c, 0x81, 0xe6, 0xe6,
  0xc9, 0xf3, 0xd7, 0x02, 0xeb, 0xd1, 0xf4, 0x23, 0xe5, 0x93, 0x10, 0xd2,
  0xf4, 0x8c, 0xe3, 0x7f, 0x6d, 0x0b, 0x72, 0x48, 0x1b, 0x92, 0x88, 0x12,
  0xd8, 0xa8, 0x0f, 0x17, 0x47, 0x8e, 0x83, 0xf0, 0x0c, 0xfb, 0xcc, 0x8f,
  0xb8, 0x6f, 0xdd, 0xc1, 0xd9, 0x8f, 0x85, 0x81, 0x34, 0x32, 0xbc, 0xf2,
  0x92, 0xd6, 0x68, 0xe3, 0x52, 0xd3, 0xa2, 0xbf, 0xd5, 0xfe, 0x48, 0xfe,
  0xaa, 0xd8, 0x73, 0xcc, 0xab, 0xc8, 0xca, 0x16, 0xef, 0xc6, 0x69, 0xc4,
  0x88, 0x7f, 0x54, 0xb5, 0x74, 0x55, 0xe0, 0x88, 0x73, 0x27, 0x60, 0xbe,
  0x08, 0xc6, 0xab, 0x6d, 0xee, 0x0c, 0xb0, 0xd0, 0xdb, 0xf4, 0xc0, 0x78,
  0x9d, 0x04, 0x30, 0x42, 0x7f, 0x6c, 0x9f, 0xfa, 0x6d, 0x00, 0x00, 0x00,
  0xce, 0xde, 0xff, 0xff, 0x04, 0x00, 0x00, 0x00, 0xe1, 0x00, 0x00, 0x00,
  0x21, 0xc5, 0x4d, 0x61, 0x97, 0x87, 0x37, 0x4c, 0x25, 0x85, 0x0c, 0xa2,
  0xc0, 0xe8, 0xbd, 0x5d, 0x8c, 0x81, 0xeb, 0x28, 0xca, 0xe3, 0xfb, 0x91,
  0x08, 0x55, 0x9b, 0x81, 0x32, 0xf8, 0x81, 0x8a, 0x7f, 0x30, 0x3c, 0x3b,
  0x05, 0x7f, 0x4a, 0x90, 0x81, 0x91, 0x50, 0x81, 0x18, 0xf7, 0x05, 0xa2,
  0xb1, 0x7f, 0x81, 0x22, 0x66, 0x3e, 0xf1, 0xcc, 0xac, 0xbb, 0x6c, 0x88,
  0x86, 0x95, 0x3a, 0x45, 0x96, 0xaa, 0x89, 0x3a, 0x53, 0x8f, 0xd7, 0x85,
  0x37, 0xa7, 0x09, 0x0c, 0x7f, 0xea, 0xd5, 0xf1, 0xbb, 0x0a, 0xae, 0xb2,
  0xb2, 0xf5, 0x7f, 0xdc, 0xcf, 0xe0, 0x85, 0xeb, 0xdc, 0x0d, 0x63, 0x61,
  0x81, 0xe6, 0xaf, 0x07, 0xff, 0x5c, 0x4e, 0x7f, 0x25, 0x56, 0x4a, 0xb0,
  0xca, 0x82, 0x7f, 0xb9, 0x08, 0x46, 0x81, 0x4a, 0x81, 0x4f, 0x7a, 0x8a,
  0x10, 0xe5, 0xf7, 0x24, 0x21, 0xfe, 0x92, 0x11, 0x79, 0x19, 0x9d, 0x0a,
  0x21, 0x7f, 0x81, 0x04, 0xf6, 0xe1, 0x49, 0xcb, 0xbd, 0x9a, 0x68, 0xad,
  0x81, 0x60, 0x72, 0x81, 0xd7, 0x04, 0xf5, 0xff, 0x8d, 0x0a, 0x98, 0xeb,
  0x81, 0x67, 0x0d, 0x13, 0x32, 0xbe, 0x6c, 0x56, 0x5a, 0xdf, 0x6e, 0x87,
  0xe8, 0x48, 0x81, 0x6a, 0x1d, 0x21, 0x7f, 0xb1, 0xab, 0xb4, 0x92, 0x74,
  0xc2, 0x48, 0xe9, 0xa9, 0xf1, 0xcd, 0xb6, 0xbc, 0x81, 0x74, 0xfe, 0x9f,
  0x47, 0xcb, 0x54, 0x5f, 0xdb, 0x91, 0x81, 0xe6, 0x58, 0x1e, 0xce, 0x1b,
  0x7f, 0xfb, 0x70, 0xde, 0x3b, 0xf0, 0x73, 0x20, 0xde, 0xdf, 0x32, 0xa7,
  0x23, 0x95, 0x11, 0x90, 0x9a, 0xe4, 0x57, 0x5b, 0x3a, 0x00, 0x00, 0x00,
  0xbe, 0xdf, 0xff, 0xff, 0x04, 0x00, 0x00, 0x00, 0x71, 0x02, 0x00, 0x00,
  0x05, 0x70, 0x95, 0x30, 0xa1, 0xe0, 0xee, 0x8b, 0xc1, 0x61, 0x63, 0x73,
  0xfc, 0xdd, 0xd8, 0x4b, 0xb1, 0x69, 0x3c, 0x51, 0x56, 0x89, 0xd5, 0x50,
  0x81, 0x2f, 0x47, 0x89, 0x96, 0x41, 0x81, 0x38, 0x69, 0xfc, 0x00, 0xcf,
  0x9c, 0x64, 0xfe, 0x4b, 0x9a, 0x4d, 0xf4, 0xd2, 0x65, 0xed, 0xf0, 0x60,
  0x84, 0xeb, 0xaf, 0x3d, 0x92, 0x6a, 0x63, 0xf4, 0x32, 0xc7, 0x9e, 0x8e,
  0x61, 0x02, 0xb0, 0x62, 0x0b, 0xf2, 0x3d, 0xd0, 0x78, 0x7f, 0x28, 0x76,
  0x4d, 0xec, 0xf3, 0x13, 0x40, 0x7f, 0xde, 0x4e, 0x41, 0x93, 0xc7, 0xd4,
  0x58, 0x6a, 0xd3, 0x8b, 0x4c, 0xe1, 0x12, 0xe6, 0x3f, 0x20, 0x31, 0x00,
  0xc5, 0x91, 0xf0, 0xe5, 0xc2, 0xa2, 0x67, 0x7f, 0xb7, 0xcc, 0x12, 0x1c,
  0x82, 0x5e, 0xd1, 0x71, 0x32, 0xb2, 0x4d, 0xd5, 0xd1, 0x16, 0xde, 0x86,
  0xb3, 0x61, 0xfa, 0x58, 0x98, 0xaf, 0xc1, 0x75, 0xd8, 0x2b, 0xd5, 0x81,
  0x9f, 0xc4, 0x6c, 0x19, 0xb7, 0x4b, 0xb6, 0x8a, 0x1f, 0x42, 0x1d, 0xd3,
  0x70, 0x6d, 0x1c, 0x8e, 0xe7, 0x97, 0x64, 0xf2, 0x7c, 0xcb, 0x8d, 0x22,
  0xf3, 0x01, 0x41, 0x81, 0xd3, 0x94, 0x54, 0x9f, 0xc2, 0xd6, 0x31, 0x04,
  0xa9, 0x26, 0x87, 0xe4, 0x9b, 0x22, 0x1d, 0x0f, 0x13, 0x04, 0x1a, 0xa4,
  0xba, 0x7f, 0x6e, 0x60, 0x5e, 0xf1, 0xe6, 0xde, 0x25, 0x67, 0x71, 0xe8,
  0x07, 0x49, 0xd2, 0x28, 0xc6, 0x75, 0x5e, 0x31, 0x29, 0xa0, 0xf8, 0x74,
  0x37, 0x78, 0xa8, 0x64, 0x68, 0x66, 0xef, 0xd6, 0x15, 0x4e, 0x39, 0x12,
  0x0a, 0x7f, 0x0e, 0x7a, 0xb1, 0xca, 0xea, 0xf5, 0xeb, 0x21, 0xeb, 0xbd,
  0x55, 0x37, 0xe3, 0x93, 0x41, 0x9d, 0x84, 0xde, 0xd5, 0x3e, 0xd5, 0xd0,
  0x22, 0x71, 0xa4, 0xc5, 0xb8, 0x7f, 0x55, 0xe1, 0x52, 0xdb, 0x77, 0x0d,
  0xc1, 0xe2, 0xed, 0xec, 0x81, 0x0c, 0x74, 0x36, 0xda, 0x1d, 0xc1, 0x19,
  0xc5, 0x94, 0xee, 0xef, 0x89, 0xd3, 0xca, 0xa0, 0x25, 0x79, 0x10, 0x4d,
  0xb7, 0x38, 0x46, 0xbd, 0xc4, 0x81, 0xe4, 0x81, 0xd2, 0xf0, 0x4e, 0x60,
  0x64, 0x18, 0x2e, 0x3b, 0x6c, 0x24, 0x13, 0x89, 0x9a, 0x1e, 0x22, 0x9e,
  0x5e, 0x0e, 0xbb, 0x7a, 0x83, 0x70, 0x64, 0x48, 0x4c, 0xa0, 0xa0, 0x85,
  0x29, 0x22, 0xa3, 0x90, 0x43, 0x89, 0x90, 0x84, 0xfb, 0x54, 0x7f, 0xed,
  0x43, 0xba, 0x9d, 0x0e, 0x3f, 0x1c, 0xff, 0x49, 0x45, 0x7f, 0x11, 0x53,
  0x63, 0xd4, 0x62, 0x1f, 0x74, 0xc0, 0x24, 0xbf, 0x81, 0x8b, 0x57, 0x77,
  0xd3, 0x81, 0x09, 0xd6, 0xfb, 0xe5, 0xce, 0xae, 0x00, 0x42, 0xb9, 0x7c,
  0x09, 0x49, 0xb8, 0x0a, 0x16, 0x81, 0xbd, 0xff, 0xd9, 0x59, 0xfb, 0x59,
  0x06, 0xc7, 0xd8, 0xc6, 0xed, 0x56, 0x6f, 0x33, 0x84, 0xf2, 0xa1, 0xd2,
  0xf1, 0xcd, 0xbe, 0xa1, 0x11, 0xb1, 0xb0, 0xe1, 0x22, 0x89, 0xc8, 0xc4,
  0xa9, 0x0b, 0x7f, 0x1a, 0x3d, 0x72, 0xe7, 0x70, 0xea, 0xde, 0x02, 0x81,
  0xea, 0xe3, 0x49, 0x69, 0x86, 0xfc, 0xd9, 0x16, 0xed, 0x7d, 0xdd, 0x95,
  0x6a, 0x7d, 0x40, 0xc2, 0x36, 0x6a, 0xa1, 0xa0, 0x81, 0x07, 0x18, 0xf1,
  0xd4, 0x16, 0x41, 0xef, 0x5b, 0x41, 0x04, 0x03, 0x31, 0x9e, 0x19, 0xac,
  0x4f, 0xce, 0xf6, 0xf6, 0x83, 0x8f, 0xb2, 0xb3, 0x3d, 0x36, 0x44, 0x47,
  0x37, 0xc8, 0x88, 0xa3, 0x89, 0x29, 0x4f, 0x81, 0x98, 0x29, 0x76, 0x45,
  0x32, 0xe7, 0xb5, 0xe4, 0xae, 0xe6, 0xd2, 0x24, 0x08, 0x21, 0x86, 0xe7,
  0xda, 0x06, 0xb8, 0xd7, 0x58, 0xd9, 0x71, 0xe6, 0xa6, 0xb0, 0x8e, 0x08,
  0xc4, 0x6b, 0xbf, 0x23, 0x78, 0x46, 0x81, 0xd9, 0xb9, 0x8d, 0xd0, 0xb2,
  0x49, 0x4e, 0xfb, 0x4f, 0x2e, 0xa2, 0x81, 0xc6, 0xe3, 0xfc, 0x10, 0x1a,
  0x74, 0x7e, 0x84, 0x84, 0xe5, 0x11, 0xa0, 0x9e, 0xe8, 0xf5, 0x75, 0xe7,
  0xac, 0x9d, 0x21, 0x77, 0x81, 0x7e, 0xcc, 0x90, 0xf0, 0x5e, 0x45, 0x4c,
  0x02, 0x62, 0x1a, 0x95, 0x06, 0xe1, 0xdc, 0x95, 0x2b, 0xfa, 0xd5, 0xe1,
  0x57, 0x3e, 0x78, 0x18, 0x91, 0xcd, 0x7f, 0x31, 0xf4, 0x98, 0x63, 0xac,
  0x59, 0x50, 0x2d, 0x88, 0x32, 0xc2, 0xda, 0x7d, 0x92, 0xcb, 0x0d, 0x96,
  0xca, 0x16, 0xe6, 0x51, 0x13, 0xb3, 0x13, 0xb7, 0x20, 0x58, 0x8c, 0x36,
  0x26, 0x68, 0x20, 0x83, 0x63, 0x6a, 0x81, 0x04, 0xed, 0x15, 0xd9, 0x09,
  0xc4, 0x33, 0xf9, 0x7f, 0x45, 0x9f, 0x20, 0x26, 0xfc, 0x2d, 0xfd, 0x7d,
  0xf1, 0xc4, 0x93, 0xfd, 0x6b, 0xbc, 0xe0, 0x55, 0xf4, 0xc9, 0x51, 0x11,
  0x2f, 0x00, 0x00, 0x00, 0x3e, 0xe2, 0xff, 0xff, 0x04, 0x00, 0x00, 0x00,
  0xe1, 0x00, 0x00, 0x00, 0x65, 0x54, 0xe0, 0xfa, 0x37, 0x15, 0x0e, 0x9b,
  0x9e, 0x77, 0x05, 0x7f, 0xbc, 0x1e, 0x8b, 0x81, 0x60, 0xf4, 0xee, 0xa1,
  0x7e, 0x0f, 0x72, 0x53, 0x69, 0x0b, 0x4a, 0x48, 0xc2, 0xab, 0xfc, 0x57,
  0x7f, 0xa5, 0x57, 0xe9, 0x7d, 0x4c, 0x81, 0x81, 0x23, 0x1a, 0xc1, 0x4f,
  0x7a, 0x4c, 0xab, 0x3b, 0x5d, 0x34, 0x96, 0xb6, 0x7d, 0xb0, 0xda, 0x8a,
  0xe1, 0xf8, 0x29, 0x8a, 0x1e, 0x9f, 0x7f, 0xcf, 0x3a, 0x9d, 0x7f, 0x32,
  0xa8, 0xf2, 0x25, 0x63, 0xbe, 0x5e, 0x20, 0x9c, 0x8a, 0x02, 0x07, 0x81,
  0xd9, 0xd2, 0xa6, 0x7f, 0x2f, 0x21, 0xd5, 0xd4, 0x5c, 0x34, 0xb0, 0x53,
  0xad, 0xed, 0xcc, 0x0b, 0xea, 0x81, 0x17, 0x36, 0xc7, 0x7f, 0xa1, 0x7f,
  0xc6, 0x46, 0x18, 0x1a, 0x95, 0x9f, 0xdf, 0x1c, 0x9f, 0xfa, 0x36, 0x0d,
  0xe3, 0xa0, 0x81, 0x7f, 0x5a, 0x81, 0x6e, 0x7f, 0x46, 0x81, 0xb3, 0x72,
  0x9d, 0x84, 0x4b, 0x81, 0xb9, 0xcb, 0xcf, 0x81, 0x57, 0xb0, 0x5e, 0x65,
  0x0d, 0x41, 0x88, 0x40, 0xe5, 0x81, 0x25, 0x94, 0x09, 0x7f, 0xf6, 0x95,
  0x81, 0xf6, 0x03, 0xae, 0xc1, 0x49, 0x15, 0x7f, 0x88, 0xaa, 0xcd, 0x2d,
  0xc5, 0xb3, 0x17, 0x7f, 0x74, 0xdd, 0x12, 0x70, 0x3f, 0xa0, 0xe6, 0xd1,
  0x6f, 0x39, 0x38, 0x16, 0x81, 0xd2, 0x3c, 0xdd, 0xc9, 0x23, 0x83, 0x1e,
  0x8c, 0x71, 0x43, 0x63, 0x9b, 0xa4, 0xf4, 0xf5, 0x5b, 0x58, 0xe5, 0xdb,
  0xc0, 0xa3, 0xff, 0xd9, 0x45, 0x90, 0x5e, 0x7a, 0x91, 0x88, 0x04, 0xda,
  0x05, 0xae, 0x1d, 0xe1, 0xb0, 0x03, 0x9a, 0x4e, 0xb6, 0xe9, 0x54, 0x0b,
  0xe5, 0x00, 0x00, 0x00, 0x2e, 0xe3, 0xff, 0xff, 0x04, 0x00, 0x00, 0x00,
  0x71, 0x02, 0x00, 0x00, 0xeb, 0xe9, 0xc8, 0x7f, 0x9b, 0x45, 0xaa, 0xbb,
  0xd0, 0x2c, 0x8c, 0x34, 0xf8, 0x1e, 0x51, 0x57, 0x04, 0x23, 0x19, 0xdb,
  0x61, 0x25, 0x82, 0x0a, 0x5d, 0xce, 0xea, 0x3a, 0x28, 0x60, 0x71, 0xe3,
  0xcf, 0x81, 0xec, 0x78, 0xb8, 0x6b, 0x2d, 0x1d, 0xe6, 0xab, 0xf0, 0x74,
  0x70, 0x81, 0xec, 0x8e, 0xed, 0xd7, 0xf0, 0x22, 0xc9, 0x89, 0x81, 0x68,
  0xad, 0xc7, 0xea, 0x26, 0xd6, 0x81, 0x82, 0x42, 0x6a, 0x9b, 0x53, 0x91,
  0x42, 0x67, 0xe1, 0x06, 0x22, 0x0f, 0x88, 0x1d, 0x56, 0x32, 0x41, 0xaf,
  0xb4, 0x7a, 0x03, 0x0f, 0xbc, 0xb5, 0x0b, 0xa9, 0x61, 0x81, 0xae, 0xe8,
  0x30, 0x0a, 0x44, 0xf3, 0x7c, 0xb3, 0xd8, 0xf2, 0x38, 0x63, 0x26, 0x12,
  0x7f, 0x78, 0x36, 0x93, 0x8d, 0xb0, 0xc7, 0xdb, 0x8f, 0xcf, 0x50, 0xc5,
  0xf7, 0x15, 0xbc, 0xc6, 0x5c, 0x87, 0x09, 0x01, 0xe2, 0xe0, 0x99, 0x2d,
  0xb5, 0x77, 0xd0, 0xf9, 0xe7, 0xb3, 0x08, 0xcd, 0x4d, 0xca, 0x45, 0x28,
  0x81, 0x48, 0x13, 0x71, 0x17, 0x1c, 0x64, 0xa2, 0x5b, 0x37, 0x7d, 0xc4,
  0x23, 0x3a, 0xd3, 0x96, 0x2d, 0xff, 0x81, 0x26, 0xe8, 0x9d, 0x5e, 0x53,
  0x05, 0x5e, 0xbd, 0x6b, 0x0d, 0x43, 0xa2, 0x24, 0x25, 0x99, 0xaa, 0xc5,
  0x9a, 0x2a, 0x8c, 0xaa, 0x4d, 0x34, 0x64, 0x10, 0x98, 0xbb, 0xfd, 0x9d,
  0xca, 0x05, 0x4a, 0x96, 0xa5, 0x84, 0x7f, 0x6a, 0xa2, 0x94, 0xe6, 0x76,
  0xd9, 0xec, 0x81, 0xee, 0x5c, 0xef, 0x57, 0x87, 0x39, 0x60, 0x03, 0xdd,
  0xff, 0x20, 0x48, 0xa0, 0x7f, 0x10, 0xdc, 0x8e, 0x94, 0xc0, 0x32, 0x85,
  0x3f, 0xbb, 0x51, 0x5c, 0xfa, 0xf6, 0xc6, 0xfb, 0x62, 0xe7, 0xcd, 0xf3,
  0xad, 0x81, 0x61, 0x48, 0x65, 0x89, 0x1a, 0x0e, 0x1f, 0x12, 0xda, 0xe7,
  0xe0, 0xc9, 0x65, 0x10, 0x7f, 0x17, 0x74, 0x6c, 0x35, 0x55, 0xea, 0xb4,
  0x34, 0x0a, 0xc4, 0xd8, 0xa7, 0x77, 0xc6, 0x11, 0x99, 0x77, 0x04, 0x78,
  0xdb, 0xf8, 0x28, 0x23, 0xb4, 0xeb, 0x04, 0x7e, 0x0e, 0xa9, 0x81, 0x20,
  0x45, 0xbe, 0x14, 0xa7, 0x92, 0xf5, 0x37, 0x2c, 0x96, 0x15, 0x3e, 0x63,
  0x75, 0x26, 0xe0, 0x77, 0x19, 0xfc, 0x28, 0xad, 0xea, 0xd3, 0x32, 0x77,
  0x9e, 0xf2, 0xc3, 0x0f, 0xda, 0xe6, 0xcf, 0x13, 0x98, 0x5b, 0x60, 0xf4,
  0xb7, 0x96, 0x22, 0x7f, 0x50, 0x9a, 0x6e, 0xc2, 0xb7, 0x02, 0x61, 0xc9,
  0xd8, 0x1c, 0x9b, 0x26, 0x93, 0x56, 0x81, 0x5a, 0x7f, 0xb5, 0xb9, 0x95,
  0xaa, 0x2e, 0x2a, 0xb6, 0x89, 0x0f, 0xb6, 0x8b, 0x84, 0x76, 0x42, 0x94,
  0xe0, 0x50, 0x35, 0x13, 0xd5, 0xb7, 0xbe, 0x5f, 0xb8, 0x67, 0xee, 0x92,
  0x49, 0x1e, 0x5e, 0x3e, 0x18, 0x08, 0x81, 0xdf, 0xfb, 0xa6, 0xc9, 0x97,
  0x7f, 0x49, 0xdc, 0xa8, 0x0b, 0x6f, 0x85, 0xa7, 0x34, 0x68, 0x34, 0x16,
  0x9b, 0x0f, 0xaf, 0x07, 0xf5, 0x9e, 0x13, 0x8a, 0xff, 0xbd, 0x18, 0x9a,
  0x3c, 0xf4, 0x59, 0x81, 0xa1, 0x92, 0x04, 0x44, 0x24, 0x88, 0x55, 0x75,
  0x66, 0x51, 0xd6, 0x69, 0xb7, 0xc5, 0x62, 0xa2, 0x3e, 0x36, 0x76, 0x63,
  0x26, 0xbe, 0x7e, 0xd0, 0x1d, 0xc7, 0xf2, 0x9b, 0xd5, 0x7d, 0x89, 0xad,
  0xd1, 0xc4, 0x81, 0x52, 0xc4, 0x10, 0x4b, 0xf2, 0x8d, 0x1d, 0xa6, 0x3b,
  0x38, 0x81, 0x1b, 0x41, 0xd4, 0xc7, 0xfa, 0xdb, 0xdf, 0xc3, 0x3d, 0x73,
  0xbb, 0x9e, 0x3a, 0x84, 0x68, 0x2e, 0x2e, 0x1e, 0x54, 0x62, 0x48, 0x4a,
  0x64, 0x86, 0x2e, 0xec, 0xa4, 0x05, 0x40, 0x27, 0x7e, 0x48, 0xcc, 0x04,
  0xf0, 0x58, 0x71, 0x45, 0x9a, 0xfa, 0x5a, 0x7f, 0x78, 0xbc, 0x6a, 0x52,
  0x7f, 0x3c, 0x0d, 0x14, 0xb5, 0xfb, 0xd9, 0x68, 0x72, 0xb2, 0x77, 0xa5,
  0xd8, 0x27, 0xd7, 0x03, 0x98, 0x4d, 0x3d, 0x4a, 0xbe, 0x18, 0xf3, 0x19,
  0x14, 0x7a, 0x7f, 0x26, 0xfd, 0x6b, 0x0c, 0x27, 0xe3, 0xab, 0x15, 0x0a,
  0xb4, 0x78, 0xae, 0x68, 0x23, 0x73, 0x07, 0x62, 0x06, 0x2a, 0x40, 0xe8,
  0x1f, 0x45, 0x1f, 0x81, 0x34, 0x5c, 0x91, 0xf9, 0xe9, 0xda, 0x58, 0xef,
  0x10, 0x19, 0x34, 0x2a, 0x93, 0x52, 0xd0, 0x83, 0x0c, 0x9a, 0x20, 0xc7,
  0xb5, 0x3f, 0x26, 0x45, 0x68, 0xb1, 0xee, 0x36, 0xaa, 0xc0, 0x06, 0x7f,
  0xfb, 0xbd, 0xf5, 0x8b, 0xbb, 0x69, 0xfb, 0xbc, 0xbc, 0xaa, 0xf0, 0xc3,
  0xe4, 0xd2, 0xc3, 0xd2, 0xbc, 0xeb, 0x27, 0x63, 0x7f, 0x7e, 0x6a, 0x43,
  0x40, 0x55, 0x0a, 0xa5, 0xc4, 0x7b, 0x6a, 0x1c, 0xab, 0x9a, 0x28, 0x8f,
  0x08, 0x08, 0xdf, 0x64, 0xdb, 0x00, 0x00, 0x00, 0xae, 0xe5, 0xff, 0xff,
  0x04, 0x00, 0x00, 0x00, 0xe1, 0x00, 0x00, 0x00, 0xe5, 0xef, 0xcb, 0x72,
  0xb9, 0x85, 0x81, 0x08, 0x7f, 0x42, 0xd9, 0xfd, 0x63, 0xa7, 0xa6, 0x18,
  0x7f, 0x9c, 0x22, 0xde, 0x81, 0x58, 0x81, 0xf0, 0x83, 0x7f, 0x48, 0xb9,
  0xc1, 0x81, 0xb7, 0x82, 0x98, 0x95, 0x2b, 0x25, 0x29, 0x05, 0xa1, 0x6a,
  0x62, 0x21, 0xe2, 0x47, 0x7e, 0xc3, 0x81, 0xf2, 0x40, 0x53, 0xf6, 0x39,
  0x5d, 0xc3, 0xf5, 0x81, 0xe3, 0x01, 0xc7, 0xf4, 0x6a, 0xe9, 0x76, 0xa6,
  0xa7, 0xa2, 0x75, 0x7f, 0x73, 0x6b, 0x63, 0xd8, 0x5e, 0xb1, 0xd8, 0xa8,
  0x40, 0x81, 0x3a, 0xf8, 0xc3, 0xb8, 0xa5, 0x03, 0xca, 0x0d, 0x81, 0x9d,
  0x41, 0x64, 0x8d, 0x54, 0xfd, 0x59, 0x5e, 0xf4, 0x63, 0xa3, 0xde, 0x70,
  0x87, 0x74, 0x9f, 0xc3, 0xdf, 0xff, 0xef, 0x16, 0xf8, 0x76, 0x7f, 0x92,
  0x77, 0x8f, 0x7f, 0x55, 0x12, 0x1d, 0x81, 0xce, 0x1a, 0x41, 0xab, 0xac,
  0x81, 0x81, 0x26, 0x1d, 0x0c, 0xe2, 0x12, 0xe5, 0x81, 0x36, 0xcc, 0xf0,
  0x45, 0x54, 0x7f, 0xa0, 0x8f, 0x20, 0xd4, 0xeb, 0x53, 0xb7, 0x19, 0x9d,
  0xa9, 0x58, 0x1f, 0x03, 0xef, 0xe9, 0xaa, 0xd4, 0x83, 0xa8, 0x85, 0x61,
  0xa3, 0xc4, 0x7f, 0x43, 0x07, 0x8d, 0x61, 0x34, 0xb9, 0x69, 0xe2, 0x2f,
  0xec, 0xb9, 0xd5, 0x5e, 0x81, 0xa3, 0x39, 0xc0, 0xf8, 0xbc, 0xd5, 0x00,
  0x0a, 0x14, 0x8f, 0xed, 0xd0, 0x45, 0x06, 0x12, 0x7e, 0xa7, 0x81, 0x8e,
  0x22, 0x74, 0x81, 0x62, 0xb5, 0xb0, 0x28, 0x81, 0x45, 0xdf, 0xae, 0xae,
  0xba, 0x81, 0x92, 0xb3, 0x1c, 0x0c, 0x8a, 0x7f, 0x60, 0x0e, 0x5f, 0xb1,
  0x9e, 0xa2, 0x40, 0xed, 0x9a, 0x00, 0x00, 0x00, 0x9e, 0xe6, 0xff, 0xff,
  0x04, 0x00, 0x00, 0x00, 0x71, 0x02, 0x00, 0x00, 0x0f, 0x19, 0x6c, 0x7d,
  0x48, 0xee, 0xb6, 0x4a, 0x41, 0x1d, 0xe5, 0x70, 0x77, 0x45, 0xea, 0x42,
  0xf4, 0xde, 0x81, 0xb1, 0xdd, 0x02, 0x41, 0x61, 0x9f, 0xc8, 0x7a, 0x7e,
  0xf7, 0xde, 0x25, 0xb5, 0xdd, 0x13, 0x64, 0x02, 0x91, 0x72, 0x7f, 0xc2,
  0xac, 0xc4, 0xab, 0xec, 0x2b, 0x00, 0xfc, 0x01, 0xf8, 0x3d, 0x63, 0x37,
  0xf4, 0x20, 0x76, 0xba, 0x7f, 0xb3, 0x7a, 0x02, 0x72, 0x15, 0x94, 0xb9,
  0xdc, 0xf9, 0x66, 0x8f, 0x11, 0x7f, 0x41, 0x20, 0xec, 0x90, 0xa8, 0x86,
  0x84, 0x14, 0x7c, 0x86, 0x10, 0x4f, 0x81, 0xa0, 0xc9, 0xa7, 0x1c, 0x5f,
  0x0c, 0x78, 0xcd, 0x7e, 0x33, 0x37, 0x9d, 0x99, 0x88, 0x9d, 0x04, 0x3d,
  0x86, 0xc2, 0xb1, 0xad, 0x3f, 0xee, 0x6e, 0x22, 0xc2, 0xfb, 0x7e, 0x09,
  0x91, 0xdd, 0xb0, 0x38, 0xf1, 0x18, 0xac, 0x42, 0x7f, 0xfe, 0xfa, 0x35,
  0xe5, 0x20, 0xa0, 0x7f, 0xdd, 0xe7, 0xba, 0x69, 0xb1, 0xdb, 0x5b, 0x39,
  0xa6, 0x1b, 0xd9, 0xbf, 0x2f, 0xd5, 0x92, 0x2d, 0x8f, 0x26, 0xbb, 0x5e,
  0x42, 0xbc, 0xec, 0x0b, 0x9c, 0xd3, 0x38, 0x29, 0x9c, 0xa4, 0x93, 0xf1,
  0x9b, 0x62, 0x55, 0xd2, 0xc6, 0x7f, 0x63, 0x91, 0x83, 0xe4, 0x24, 0x42,
  0xe0, 0x5e, 0xd8, 0xe6, 0x1a, 0x0f, 0x7f, 0xbb, 0x78, 0x93, 0x9f, 0x96,
  0x3a, 0x21, 0x0c, 0xdc, 0x1f, 0x24, 0xff, 0x07, 0x0b, 0x38, 0xdb, 0x18,
  0x16, 0xb0, 0xa5, 0x92, 0x9d, 0x64, 0x72, 0x87, 0xf9, 0x1c, 0xd9, 0x3d,
  0x29, 0x1a, 0x84, 0xe9, 0x34, 0x1d, 0x69, 0x06, 0x5c, 0xde, 0xca, 0x53,
  0xe3, 0xff, 0x5c, 0x81, 0x66, 0x93, 0xca, 0xb3, 0x8d, 0x01, 0x8f, 0x6d,
  0xad, 0xbb, 0x48, 0x89, 0x8b, 0x5a, 0xe1, 0xd3, 0x2c, 0x5a, 0x25, 0x50,
  0xf2, 0x24, 0x37, 0x8a, 0x62, 0x81, 0x60, 0x54, 0x3b, 0x81, 0x96, 0xb5,
  0x30, 0x27, 0xbc, 0x53, 0xf3, 0xc0, 0xbb, 0xb5, 0xa8, 0x71, 0x2e, 0x4c,
  0xb2, 0xe9, 0xb2, 0x28, 0x8c, 0x4d, 0x39, 0xa1, 0xb1, 0xbb, 0xb7, 0x21,
  0x29, 0xb3, 0xf3, 0x88, 0x62, 0x77, 0x54, 0x7f, 0xcf, 0xc4, 0xb3, 0xb2,
  0xa2, 0xc5, 0x10, 0x9b, 0x5c, 0x7d, 0xc3, 0x3d, 0x1c, 0x1d, 0xb0, 0x62,
  0x27, 0x19, 0x7b, 0x68, 0x68, 0x84, 0xdb, 0x6d, 0x06, 0xc3, 0x25, 0xf5,
  0x2e, 0x66, 0x96, 0xd4, 0x48, 0x54, 0x7f, 0x33, 0xa7, 0xd2, 0xcd, 0xa1,
  0xba, 0xb4, 0x37, 0x3b, 0xbf, 0x24, 0x6b, 0x65, 0x57, 0x7f, 0xec, 0xf1,
  0x59, 0xa4, 0xe8, 0x9e, 0x4c, 0x4a, 0x53, 0xf1, 0x2a, 0x8c, 0x10, 0x12,
  0xe9, 0x08, 0x52, 0xc8, 0xc0, 0x9e, 0xcb, 0x72, 0x7f, 0xdf, 0x6b, 0x36,
  0xcc, 0xae, 0xd1, 0xa0, 0x67, 0x20, 0x3b, 0x42, 0xde, 0xc7, 0xbb, 0x09,
  0x81, 0x69, 0x42, 0x42, 0xb5, 0x69, 0x5f, 0xe8, 0x25, 0x42, 0x3b, 0xee,
  0x81, 0xb0, 0x27, 0xd4, 0x84, 0x61, 0x31, 0xdc, 0x46, 0x17, 0xf2, 0xdf,
  0xc1, 0x06, 0x0d, 0xeb, 0x4d, 0x19, 0x96, 0x82, 0x1c, 0x34, 0x88, 0xb4,
  0xa4, 0x75, 0xb1, 0x37, 0x0b, 0x7f, 0xec, 0x0c, 0x9c, 0xe2, 0x11, 0x83,
  0xbe, 0x5e, 0x14, 0x54, 0x43, 0x7a, 0x20, 0xa9, 0x52, 0x37, 0x8c, 0xfb,
  0x66, 0xc7, 0xad, 0xf0, 0xb9, 0x1d, 0xf0, 0x81, 0x56, 0xa1, 0xfd, 0xe4,
  0x18, 0xac, 0x59, 0x5b, 0xc9, 0x0d, 0x18, 0xe3, 0x71, 0xbe, 0xb4, 0xbf,
  0xdb, 0xc0, 0x67, 0x71, 0x18, 0xa5, 0x07, 0x28, 0xb8, 0x4a, 0x9f, 0x81,
  0x98, 0xa4, 0x2f, 0x66, 0x32, 0x97, 0x5e, 0xaa, 0xd8, 0x13, 0x35, 0x88,
  0xa3, 0x8a, 0x1a, 0x28, 0x88, 0x7f, 0x12, 0xef, 0x7b, 0x36, 0x1a, 0x03,
  0xad, 0x3d, 0x72, 0xe8, 0x7f, 0xba, 0x55, 0x18, 0x62, 0xa3, 0xaf, 0xc3,
  0x9e, 0xb9, 0x95, 0x25, 0x17, 0xf9, 0x56, 0xe8, 0x73, 0xe9, 0x17, 0x0b,
  0xf8, 0xbe, 0xda, 0x32, 0xd3, 0x63, 0xff, 0x67, 0x77, 0x66, 0x61, 0x70,
  0xc1, 0x0a, 0x74, 0xbd, 0xb0, 0xf3, 0x21, 0xdb, 0xfd, 0x2d, 0x16, 0x77,
  0xaf, 0x7f, 0x1e, 0x53, 0x64, 0xd7, 0xaa, 0x1c, 0xef, 0xc7, 0x8d, 0xa3,
  0xb1, 0x7f, 0x60, 0x83, 0x96, 0xa4, 0xcd, 0x3a, 0x66, 0x18, 0x8e, 0xbe,
  0xca, 0x76, 0x3b, 0xd7, 0xc7, 0x54, 0x90, 0xcc, 0xc3, 0x9c, 0xae, 0xe8,
  0xa3, 0xa5, 0x65, 0x05, 0xa9, 0x64, 0x2d, 0xbc, 0x1e, 0x7c, 0x7f, 0x47,
  0xe3, 0x40, 0x1a, 0x59, 0x68, 0xef, 0xef, 0x3b, 0x6f, 0x4b, 0xf8, 0x17,
  0x05, 0xb0, 0xcb, 0x8d, 0xa8, 0x0d, 0x4a, 0xba, 0xe0, 0x7f, 0x17, 0x85,
  0x0b, 0xf7, 0xa6, 0xb9, 0x16, 0x90, 0x42, 0xb3, 0xef, 0x00, 0x00, 0x00,
  0x1e, 0xe9, 0xff, 0xff, 0x04, 0x00, 0x00, 0x00, 0xe1, 0x00, 0x00, 0x00,
  0x07, 0x7f, 0x53, 0x1a, 0xb9, 0xe4, 0xe8, 0x00, 0x0a, 0x94, 0x56, 0x81,
  0x5b, 0x25, 0xec, 0xec, 0x0b, 0xb6, 0x6e, 0x91, 0x8c, 0xa8, 0x81, 0xcf,
  0x81, 0x0b, 0xcf, 0x72, 0x12, 0x56, 0x4e, 0x95, 0x81, 0x0c, 0x5d, 0xd7,
  0xae, 0x9d, 0xd8, 0x7f, 0x7c, 0x7f, 0x5c, 0xae, 0x13, 0xaf, 0xfa, 0x42,
  0xdf, 0x94, 0x8f, 0x1f, 0x0d, 0xe2, 0x87, 0x1a, 0x09, 0x42, 0xa1, 0xb7,
  0xb5, 0x84, 0x2a, 0xa3, 0x92, 0xb5, 0x85, 0x7f, 0xdf, 0x08, 0x6d, 0xd1,
  0x14, 0x6f, 0x05, 0x39, 0xe7, 0x1e, 0x7f, 0xf9, 0xd1, 0x07, 0x90, 0x57,
  0x49, 0x81, 0xad, 0x23, 0x81, 0x8f, 0xab, 0xda, 0xe8, 0x75, 0xa7, 0xa1,
  0x1c, 0x88, 0xef, 0x0c, 0xa7, 0xc5, 0x57, 0xf8, 0x7f, 0x7f, 0x03, 0x51,
  0x81, 0x9e, 0x0f, 0x37, 0xb5, 0x90, 0xb2, 0x6b, 0xc2, 0xfd, 0x39, 0x49,
  0xc7, 0x7f, 0x86, 0x7f, 0x38, 0xf7, 0xb4, 0x4f, 0x36, 0x6e, 0xc0, 0x93,
  0xca, 0x43, 0x6a, 0x59, 0xf6, 0x3a, 0x38, 0x89, 0x81, 0x45, 0x98, 0xaa,
  0x40, 0xbb, 0x21, 0x24, 0xc5, 0xb3, 0x96, 0xe0, 0xfd, 0x48, 0x88, 0xf3,
  0x5f, 0xa1, 0xe6, 0x51, 0x54, 0x3e, 0x54, 0x15, 0x7d, 0xf5, 0xcf, 0x25,
  0x68, 0x39, 0x81, 0x69, 0xfe, 0xb2, 0xe4, 0x7f, 0xaa, 0x72, 0x50, 0x7c,
  0x68, 0x7f, 0xce, 0xc4, 0x7f, 0x6c, 0xcc, 0x5a, 0x01, 0xaf, 0x0c, 0x76,
  0x64, 0x7f, 0x7f, 0x17, 0xfb, 0x55, 0x97, 0xca, 0x7e, 0x9f, 0x7f, 0x2f,
  0x76, 0x7f, 0xbb, 0xed, 0x56, 0x17, 0xc9, 0x9d, 0x7f, 0xcf, 0xcf, 0xb8,
  0x4f, 0x66, 0x59, 0xce, 0x90, 0x1e, 0x33, 0x4e, 0x1d, 0x00, 0x00, 0x00,
  0x0e, 0xea, 0xff, 0xff, 0x04, 0x00, 0x00, 0x00, 0x71, 0x02, 0x00, 0x00,
  0xa3, 0x70, 0x4c, 0x52, 0xfa, 0xf8, 0x19, 0x5c, 0xa8, 0xf2, 0xd6, 0x15,
  0x83, 0x2a, 0x19, 0x81, 0x65, 0x88, 0xaf, 0xa7, 0xba, 0xf8, 0x0c, 0x72,
  0xf8, 0xc4, 0x81, 0x01, 0x64, 0x8b, 0x84, 0x0e, 0xc9, 0x84, 0xe0, 0xd7,
  0x7f, 0x7b, 0x1e, 0x7d, 0x38, 0x3a, 0x30, 0x7e, 0xe7, 0x38, 0x8d, 0xbf,
  0x66, 0xee, 0x7f, 0x46, 0x17, 0x6b, 0x9e, 0x32, 0x33, 0xc9, 0xf1, 0xd5,
  0x6d, 0x2f, 0x3b, 0x07, 0x39, 0xcf, 0xa4, 0x84, 0x56, 0x8a, 0x1a, 0x82,
  0xaf, 0xc3, 0xbc, 0x88, 0x4a, 0xa2, 0xa9, 0x72, 0x5c, 0x59, 0xd2, 0x95,
  0xde, 0x81, 0xb9, 0x2a, 0x2e, 0x72, 0xc5, 0xb2, 0x32, 0xb8, 0x21, 0x72,
  0x39, 0xca, 0x68, 0xf6, 0x7a, 0xa1, 0x1b, 0x58, 0x6c, 0xeb, 0xcc, 0x2a,
  0x23, 0x6f, 0x3d, 0xb1, 0x49, 0x11, 0x5f, 0x0b, 0x5b, 0x4c, 0x96, 0xd5,
  0x9a, 0x15, 0x26, 0x7f, 0xb7, 0xdf, 0x5d, 0x16, 0x94, 0x13, 0x56, 0x69,
  0x9b, 0x5c, 0x4c, 0x6e, 0x08, 0xad, 0xf3, 0xd2, 0xbf, 0x3d, 0x35, 0x88,
  0xf2, 0x85, 0x20, 0x37, 0x81, 0x72, 0xe1, 0x58, 0xeb, 0xbf, 0xc3, 0x07,
  0xb1, 0x93, 0x64, 0x18, 0x75, 0x7f, 0x91, 0xcf, 0x28, 0xf5, 0x0f, 0xaf,
  0x00, 0xbd, 0x86, 0x2f, 0xbd, 0xf3, 0x71, 0x92, 0xb5, 0x70, 0xc1, 0x4e,
  0xd5, 0xde, 0x70, 0x56, 0x8e, 0xa5, 0xa3, 0x65, 0x29, 0x78, 0x8c, 0xbd,
  0xc1, 0x97, 0x6f, 0xec, 0xc0, 0x6f, 0x81, 0x0b, 0x26, 0x4e, 0x0b, 0x6c,
  0x45, 0x4c, 0x4c, 0x37, 0x81, 0xff, 0x0d, 0xd5, 0x18, 0xeb, 0x8f, 0x25,
  0x58, 0x1f, 0x02, 0x28, 0x3e, 0x6e, 0x71, 0x16, 0x76, 0x81, 0xb8, 0x78,
  0xd0, 0x08, 0xc2, 0x5b, 0x79, 0x62, 0xc1, 0x9c, 0xe9, 0x76, 0x82, 0x45,
  0x42, 0xdd, 0xd2, 0x56, 0x9d, 0xf3, 0x1e, 0x07, 0x48, 0xbb, 0x15, 0x0e,
  0xa1, 0xb9, 0xa4, 0x5c, 0xf5, 0x0d, 0x81, 0x5a, 0xc2, 0xcf, 0x7b, 0x02,
  0x20, 0xd9, 0x0c, 0x57, 0x2f, 0x10, 0xd1, 0x2c, 0x93, 0xbd, 0x0a, 0x4f,
  0x8f, 0x7f, 0xcd, 0x2c, 0xe8, 0x95, 0xfe, 0x98, 0x28, 0xbe, 0x29, 0x9b,
  0x22, 0xd2, 0xd2, 0x3d, 0x79, 0x99, 0xc6, 0x8d, 0x15, 0xf4, 0x7a, 0xc9,
  0xfe, 0xfe, 0x32, 0x71, 0x58, 0xb1, 0x7c, 0xbc, 0x6e, 0xbf, 0x72, 0x2d,
  0x27, 0x32, 0xf2, 0x03, 0xd0, 0x66, 0xe6, 0x86, 0x81, 0x54, 0x28, 0x55,
  0x06, 0xbe, 0xaa, 0x38, 0x17, 0x5e, 0x33, 0x94, 0x11, 0xe5, 0xa8, 0xcc,
  0x8e, 0x28, 0xd7, 0x11, 0x67, 0x23, 0xe4, 0x97, 0xc8, 0x7f, 0xd1, 0x3a,
  0x93, 0x93, 0xac, 0x8a, 0x8d, 0xf4, 0x0b, 0x36, 0x81, 0x9c, 0xb9, 0xdd,
  0x8f, 0x49, 0x39, 0xf0, 0x08, 0x7b, 0x43, 0x91, 0x01, 0xf6, 0x6f, 0xc4,
  0xe5, 0xd5, 0xbd, 0x34, 0x73, 0xea, 0xc4, 0xa1, 0xbf, 0x81, 0xf6, 0x27,
  0x77, 0xd9, 0xb6, 0x66, 0x20, 0x9b, 0x6d, 0x99, 0xb5, 0xd3, 0x48, 0x46,
  0xb1, 0x30, 0x5c, 0x1e, 0xfb, 0x43, 0xe2, 0xfb, 0x83, 0x58, 0x29, 0x51,
  0x6a, 0xcd, 0x6e, 0xdb, 0xe2, 0xa6, 0x85, 0xcf, 0x81, 0x9a, 0xd9, 0x54,
  0x03, 0x1c, 0x20, 0x29, 0x82, 0x4b, 0xb1, 0x87, 0xc1, 0xff, 0x12, 0x9e,
  0x7f, 0x01, 0x32, 0x8d, 0x20, 0x10, 0xdf, 0xea, 0x9a, 0xf5, 0x81, 0x15,
  0x3c, 0x37, 0x7c, 0xfa, 0xfc, 0xc2, 0xee, 0x62, 0xaa, 0x86, 0xfe, 0x7d,
  0xea, 0x53, 0xe7, 0x86, 0xa4, 0x8e, 0x2f, 0xa4, 0x59, 0x81, 0x73, 0xdb,
  0x04, 0x7b, 0xfe, 0x34, 0x00, 0x16, 0x3c, 0x82, 0x04, 0x91, 0x3d, 0x3e,
  0xc3, 0x12, 0xdf, 0x2a, 0xe7, 0x69, 0xae, 0x41, 0xe2, 0xb0, 0x10, 0x19,
  0xdd, 0xfa, 0x3a, 0x5d, 0xa2, 0x88, 0x9a, 0x7f, 0xed, 0x30, 0x34, 0xd4,
  0x63, 0x64, 0x1b, 0x92, 0xe1, 0x7f, 0xd3, 0xf3, 0x92, 0x06, 0xcb, 0xc7,
  0x4b, 0xc4, 0xca, 0xb7, 0x9d, 0x27, 0xae, 0x3f, 0x1c, 0x6c, 0xd4, 0x24,
  0x11, 0xad, 0x71, 0x6a, 0x19, 0x35, 0x6f, 0xfc, 0x70, 0xec, 0x12, 0xd2,
  0x10, 0xd4, 0x14, 0x49, 0x9c, 0xbf, 0x81, 0xc6, 0x94, 0x6e, 0x3b, 0xc2,
  0x4e, 0x7d, 0x39, 0x3e, 0x3c, 0x2d, 0xcb, 0xbf, 0x77, 0x67, 0xae, 0xeb,
  0x9d, 0x6a, 0xc1, 0xfb, 0xec, 0xe0, 0xae, 0x3e, 0x81, 0x28, 0x6e, 0x22,
  0xea, 0x15, 0xbe, 0x95, 0x07, 0x51, 0xc5, 0xc8, 0x1b, 0x21, 0xe4, 0x8d,
  0xf7, 0xd7, 0xf6, 0x72, 0x4f, 0xfa, 0x7f, 0xbd, 0x9a, 0xf7, 0x87, 0x26,
  0xca, 0x68, 0x81, 0x0d, 0x0a, 0x5b, 0x2c, 0x99, 0x57, 0xa1, 0x55, 0xa9,
  0xb8, 0xdd, 0xdd, 0x83, 0x47, 0x57, 0x17, 0xea, 0xf1, 0x7a, 0xf9, 0xc9,
  0xdb, 0x00, 0x00, 0x00, 0x8e, 0xec, 0xff, 0xff, 0x04, 0x00, 0x00, 0x00,
  0xe1, 0x00, 0x00, 0x00, 0xcb, 0x31, 0x4b, 0xee, 0x13, 0x40, 0x89, 0x9e,
  0x74, 0x7f, 0x0c, 0x90, 0xd0, 0x3e, 0x1d, 0xdb, 0x48, 0xff, 0x35, 0xba,
  0x88, 0x3e, 0xd2, 0x59, 0xa2, 0xf9, 0xd8, 0xcc, 0x7f, 0x7c, 0x47, 0x63,
  0x29, 0xac, 0xd6, 0xb4, 0xab, 0x7e, 0x22, 0x32, 0x9b, 0xe2, 0xba, 0xdf,
  0x66, 0x12, 0x0a, 0x7f, 0xe5, 0x3e, 0x10, 0xc2, 0x29, 0x70, 0x98, 0xbe,
  0x2b, 0xf1, 0xb1, 0xa4, 0xe9, 0xc2, 0x58, 0xbf, 0x67, 0x9a, 0xa8, 0x53,
  0xe8, 0x6a, 0xac, 0x7f, 0x38, 0x26, 0xf6, 0x7f, 0x51, 0xa9, 0x76, 0x16,
  0x4b, 0x94, 0x50, 0x85, 0x19, 0x1f, 0x06, 0x63, 0xed, 0x81, 0xfa, 0xde,
  0x7b, 0x22, 0x89, 0x68, 0x4e, 0x51, 0xe0, 0xd7, 0xb1, 0x7f, 0xba, 0x85,
  0x08, 0x0d, 0x9f, 0x81, 0xb9, 0xbe, 0x97, 0x0f, 0x81, 0xb3, 0x18, 0x81,
  0x7f, 0x7f, 0xbb, 0xd5, 0xf7, 0x9e, 0x50, 0x97, 0xf6, 0xbe, 0x9c, 0xab,
  0xe9, 0x61, 0x8f, 0x58, 0x95, 0x63, 0x2e, 0xb7, 0x81, 0xa0, 0x44, 0xd8,
  0x35, 0x62, 0x89, 0x7c, 0x09, 0x7f, 0xe3, 0x2f, 0x7a, 0xdf, 0x73, 0x24,
  0x6a, 0x49, 0x87, 0x9f, 0xd0, 0x82, 0x81, 0xe2, 0x4b, 0x86, 0xaa, 0x7e,
  0x7e, 0x95, 0xb6, 0xff, 0xc9, 0xdb, 0x91, 0x5f, 0xc2, 0x3f, 0x7f, 0x1e,
  0xe1, 0x4c, 0xf6, 0x34, 0x7f, 0x27, 0x5d, 0xcf, 0x84, 0xfe, 0xd0, 0x12,
  0x7f, 0xdd, 0x99, 0x7b, 0x7f, 0x7f, 0x81, 0xfa, 0xfc, 0x02, 0x7f, 0x4f,
  0x9a, 0x9a, 0x81, 0x83, 0x7f, 0xe9, 0x81, 0xcc, 0x49, 0x22, 0x81, 0x5b,
  0xf1, 0xd8, 0x11, 0x6b, 0x64, 0x25, 0x9f, 0x07, 0x81, 0xb5, 0x55, 0xc7,
  0x1d, 0x00, 0x00, 0x00, 0x7e, 0xed, 0xff, 0xff, 0x04, 0x00, 0x00, 0x00,
  0xfb, 0x04, 0x00, 0x00, 0x40, 0x90, 0x76, 0x31, 0x85, 0xe9, 0xe4, 0x15,
  0x04, 0x51, 0x88, 0x91, 0x9a, 0x1c, 0x53, 0xc7, 0xca, 0xbd, 0x2d, 0xcd,
  0x7f, 0x89, 0xfa, 0x1a, 0x32, 0x8f, 0xc9, 0xb9, 0xad, 0x81, 0xba, 0xc8,
  0x81, 0x11, 0xf6, 0x21, 0x05, 0xd3, 0x3a, 0x2c, 0x4a, 0x71, 0x5b, 0x2c,
  0x70, 0xd3, 0x5e, 0x00, 0xcf, 0x89, 0x9b, 0x0e, 0x88, 0x14, 0x93, 0x17,
  0xe7, 0x60, 0x94, 0xd8, 0x3e, 0x7f, 0x9e, 0xab, 0x1c, 0x2d, 0x6b, 0xf6,
  0xd7, 0x63, 0x08, 0x55, 0xbd, 0x5e, 0xce, 0xe4, 0x7a, 0x1d, 0x0a, 0x7b,
  0x81, 0x58, 0x90, 0xc2, 0x2f, 0x21, 0x8e, 0x3a, 0xbd, 0x20, 0x24, 0x02,
  0x2c, 0x97, 0x70, 0x9e, 0xf0, 0xb9, 0x96, 0x75, 0xf0, 0xf7, 0x6b, 0x65,
  0x08, 0x91, 0x35, 0x16, 0x26, 0x62, 0xdb, 0x6a, 0x9a, 0xe4, 0x91, 0xed,
  0x1f, 0xb3, 0xa0, 0x16, 0x97, 0x91, 0xd0, 0x7f, 0x25, 0x69, 0x78, 0x44,
  0xbe, 0xf2, 0x03, 0xfe, 0xfd, 0xc1, 0xb1, 0x17, 0x6a, 0xe3, 0x6c, 0x81,
  0x6c, 0xe4, 0x1c, 0xb8, 0xaa, 0x2d, 0x92, 0xa0, 0xa8, 0xc3, 0x37, 0x42,
  0x83, 0x1f, 0xd3, 0xef, 0x5d, 0x0f, 0x53, 0x38, 0x13, 0x6c, 0xaa, 0xe6,
  0x5e, 0xfc, 0x40, 0x48, 0x57, 0x76, 0x7f, 0x98, 0x05, 0x4f, 0x34, 0x7f,
  0x4c, 0x5d, 0xaf, 0x32, 0x36, 0xcc, 0x87, 0xd4, 0x88, 0x4b, 0xed, 0xf9,
  0x1e, 0x54, 0x55, 0x1f, 0x58, 0xb2, 0x3c, 0xa1, 0xe8, 0x17, 0x30, 0x81,
  0x1e, 0x40, 0xa3, 0xc3, 0xc4, 0xa0, 0x56, 0x81, 0x61, 0xbe, 0x83, 0x02,
  0x88, 0x67, 0xd1, 0x19, 0x0b, 0xd9, 0xaf, 0x2a, 0x58, 0x04, 0x90, 0xb8,
  0x9d, 0x50, 0x25, 0x54, 0xa3, 0x81, 0xc8, 0x04, 0xa4, 0x75, 0xab, 0x2b,
  0xd1, 0xf3, 0xff, 0x10, 0xe3, 0x3f, 0x8d, 0x76, 0x5c, 0xcc, 0xe6, 0x42,
  0x0d, 0x79, 0xb3, 0xbf, 0xfb, 0x43, 0x2a, 0x36, 0x73, 0xc7, 0xf0, 0xd0,
  0xcf, 0x00, 0xe0, 0xe2, 0x88, 0x7f, 0x75, 0xc2, 0x89, 0x58, 0x7e, 0x17,
  0x9b, 0x04, 0x45, 0xf3, 0xfa, 0x2a, 0x72, 0x7e, 0xf0, 0x15, 0x7b, 0xa8,
  0x46, 0xaf, 0xfd, 0x6d, 0xfb, 0x31, 0xe0, 0xfb, 0xfb, 0x6f, 0x23, 0xd6,
  0x97, 0x81, 0x25, 0xff, 0x91, 0x7b, 0x26, 0xd8, 0xce, 0xd8, 0xa8, 0xcd,
  0x4f, 0x98, 0xb1, 0x23, 0x5b, 0x2f, 0xca, 0x7f, 0x52, 0xc9, 0x93, 0x36,
  0xf9, 0x97, 0x5a, 0x5f, 0x27, 0x90, 0x6e, 0x70, 0xdf, 0x85, 0x56, 0x51,
  0xd4, 0x6b, 0xdb, 0x47, 0xf0, 0x8c, 0xbd, 0xee, 0x19, 0xbe, 0xd0, 0x3c,
  0xb9, 0x26, 0x03, 0x81, 0x26, 0x52, 0xee, 0x5e, 0x5e, 0x59, 0x46, 0xcf,
  0xfb, 0xf2, 0xd5, 0x37, 0xb0, 0x37, 0x7f, 0xe1, 0x5d, 0x1b, 0x70, 0xd7,
  0xd0, 0xd2, 0x30, 0xa7, 0x8a, 0x52, 0xd5, 0xcd, 0x2a, 0x2b, 0x44, 0x76,
  0x6c, 0x5c, 0xfa, 0x9e, 0x79, 0xcf, 0x7f, 0x3d, 0x51, 0x10, 0x31, 0x67,
  0x20, 0x2f, 0x63, 0xcb, 0x23, 0x4e, 0xe0, 0xca, 0x89, 0x38, 0xfd, 0x9b,
  0x8a, 0x07, 0xe0, 0xde, 0x8c, 0x5e, 0xef, 0xac, 0xd4, 0x5f, 0x41, 0xb0,
  0x69, 0xf8, 0x6a, 0x7f, 0xe4, 0x83, 0x35, 0x9f, 0xd7, 0xbd, 0x02, 0x67,
  0xa3, 0x34, 0x94, 0x38, 0xd3, 0xb2, 0x73, 0xab, 0x33, 0x78, 0x81, 0xf9,
  0x5b, 0x59, 0xce, 0x99, 0xa6, 0xc6, 0x5c, 0x82, 0x48, 0x75, 0x7a, 0x1b,
  0x8f, 0x9c, 0x7a, 0xfc, 0x3f, 0xbe, 0x03, 0x3c, 0x88, 0xc6, 0xe6, 0x3f,
  0x5c, 0x57, 0x33, 0x98, 0xaa, 0xd1, 0x4d, 0xd2, 0xa1, 0x81, 0xe8, 0xa0,
  0x2f, 0x0f, 0x7b, 0x7a, 0xb7, 0x3b, 0x0f, 0x73, 0xd5, 0xdc, 0xf8, 0x2f,
  0xa7, 0xdd, 0x7f, 0x2e, 0x24, 0xd4, 0xdf, 0xa5, 0xe2, 0x5f, 0x8c, 0x54,
  0x61, 0xf5, 0x9f, 0x9e, 0x0c, 0x09, 0x0d, 0x81, 0x7a, 0x4f, 0x07, 0x2d,
  0x6d, 0x57, 0x44, 0x8f, 0xf5, 0x3e, 0xf3, 0x14, 0x3e, 0xd7, 0xcb, 0x76,
  0x5a, 0x9d, 0x37, 0x47, 0x3b, 0x74, 0xad, 0xd3, 0x9d, 0x2d, 0xfd, 0xf4,
  0xdd, 0x4c, 0x88, 0x81, 0x1c, 0x81, 0x03, 0x18, 0x97, 0xc1, 0x10, 0x31,
  0xb6, 0x4c, 0xde, 0x4f, 0xfd, 0xf7, 0x13, 0x6a, 0x69, 0x98, 0x53, 0x81,
  0x00, 0x53, 0xe0, 0xb3, 0xd6, 0x92, 0xa9, 0x63, 0xe5, 0x23, 0x2e, 0xfa,
  0x81, 0x44, 0xef, 0x5a, 0x24, 0x88, 0x28, 0x45, 0x97, 0x33, 0x65, 0x24,
  0x6b, 0x6b, 0x31, 0x20, 0x7f, 0x50, 0xf1, 0x5a, 0xb3, 0x46, 0xfd, 0xf7,
  0xb2, 0x0a, 0xe3, 0xc9, 0x20, 0xd1, 0x7f, 0x14, 0xa5, 0x96, 0xeb, 0x82,
  0xd1, 0xb3, 0x8d, 0xc4, 0xe3, 0xa5, 0x13, 0x4c, 0x33, 0x43, 0xc3, 0x2d,
  0x1d, 0x82, 0x67, 0xe8, 0xf1, 0x81, 0xfc, 0xb7, 0xdb, 0x22, 0xf0, 0xf3,
  0xcd, 0x36, 0x56, 0xe6, 0x90, 0x1d, 0x3c, 0x43, 0xa0, 0xa6, 0xc9, 0x09,
  0x9a, 0x1a, 0x96, 0x08, 0x9b, 0x2d, 0xda, 0xc2, 0x8f, 0x22, 0x16, 0x4c,
  0xa8, 0xff, 0xa5, 0x20, 0x5a, 0x81, 0x18, 0xa5, 0x35, 0x09, 0x3c, 0x1a,
  0x1d, 0xed, 0xf1, 0x3f, 0xcd, 0xaa, 0x06, 0x74, 0x7b, 0x81, 0xfd, 0x7c,
  0xf2, 0x89, 0x76, 0xf6, 0xd1, 0x16, 0xab, 0x44, 0x3c, 0x8e, 0x7c, 0xbc,
  0xaa, 0x7c, 0x3e, 0xe9, 0xb4, 0x35, 0xb1, 0x30, 0x87, 0xaf, 0xca, 0x69,
  0xe3, 0xab, 0xbb, 0xb7, 0xa1, 0x4b, 0x7f, 0xf4, 0xa1, 0x2f, 0x81, 0x4b,
  0x1e, 0x91, 0x4f, 0xe5, 0x35, 0xca, 0x21, 0x0a, 0x0f, 0x99, 0x81, 0x74,
  0x4d, 0x36, 0xe0, 0x2d, 0xb2, 0x24, 0xbf, 0xed, 0xa3, 0x2c, 0x63, 0x2a,
  0x48, 0x1f, 0x00, 0x78, 0xfb, 0x5b, 0x30, 0x62, 0x86, 0x3a, 0x4c, 0x06,
  0x41, 0x39, 0xd8, 0x13, 0x9a, 0xf7, 0x0c, 0x56, 0x75, 0x81, 0xf7, 0x7d,
  0x26, 0xa0, 0x89, 0xf1, 0x04, 0xe7, 0x23, 0x66, 0x00, 0xe1, 0xb9, 0x32,
  0x8f, 0xbb, 0xea, 0x58, 0x4e, 0x19, 0xad, 0xc8, 0x21, 0x9e, 0xbd, 0xe9,
  0x49, 0xc8, 0xba, 0xc9, 0x25, 0xc6, 0xa9, 0xe2, 0x5b, 0x02, 0x7f, 0x5f,
  0x06, 0x77, 0x87, 0xf4, 0xad, 0xb8, 0xd9, 0x87, 0x5d, 0x6c, 0x22, 0xbe,
  0x67, 0x00, 0x76, 0xae, 0xa8, 0x04, 0x97, 0xa8, 0x7f, 0x65, 0x61, 0xe0,
  0x39, 0x84, 0x1b, 0x4d, 0x6a, 0x46, 0x44, 0xfe, 0xb3, 0xae, 0x3d, 0x8d,
  0xf3, 0x5d, 0xb4, 0x81, 0x31, 0x11, 0x85, 0x76, 0x29, 0xf9, 0x1f, 0x5b,
  0x88, 0x81, 0xec, 0x87, 0xd2, 0xe3, 0x41, 0x82, 0xc4, 0x53, 0x81, 0xc9,
  0xfe, 0xfc, 0x00, 0xc7, 0xeb, 0x72, 0x17, 0xe7, 0xc7, 0xc1, 0x59, 0x0c,
  0xeb, 0x8a, 0x8e, 0x2e, 0xe2, 0x2c, 0x74, 0x54, 0x5b, 0x17, 0xf1, 0xf2,
  0xc2, 0x71, 0xf5, 0xf7, 0x43, 0x7f, 0xb0, 0x5d, 0x5c, 0xa7, 0x13, 0xd9,
  0x82, 0x32, 0xea, 0xa4, 0xbc, 0xb8, 0x34, 0xa2, 0x2f, 0xb4, 0x2c, 0x7f,
  0x91, 0x55, 0xd4, 0xa6, 0xbb, 0x2a, 0x97, 0xaf, 0x60, 0x93, 0x2d, 0xda,
  0xfc, 0xee, 0xed, 0xb3, 0xde, 0x32, 0xa3, 0xf4, 0xfa, 0xb8, 0xd2, 0x5f,
  0x4b, 0x7f, 0x70, 0x40, 0x27, 0x7f, 0xa5, 0xa0, 0x40, 0x94, 0xf5, 0x8e,
  0x06, 0x4a, 0xda, 0xc5, 0x3d, 0x7b, 0x6a, 0x25, 0x78, 0xbf, 0xfd, 0xb8,
  0x33, 0x0e, 0xf9, 0x7f, 0x73, 0x93, 0x65, 0x79, 0x6d, 0x55, 0xb1, 0x3a,
  0x04, 0x49, 0xaf, 0x69, 0xcf, 0xb8, 0xcc, 0x6e, 0x90, 0xf9, 0x79, 0x5a,
  0x70, 0xae, 0x2e, 0xa1, 0xa3, 0x77, 0x93, 0x81, 0x25, 0x07, 0x6f, 0x9c,
  0xc4, 0x70, 0xe9, 0x98, 0x4f, 0xac, 0x60, 0x7c, 0x6d, 0x18, 0xd0, 0x81,
  0x02, 0xbc, 0x7e, 0x9a, 0x73, 0x9f, 0x55, 0xa8, 0xc2, 0x0d, 0x05, 0x3e,
  0x3a, 0xd6, 0xf5, 0x51, 0x7d, 0x28, 0xe2, 0x0d, 0xc3, 0xfb, 0x2f, 0x32,
  0xc5, 0x97, 0x11, 0x29, 0x3d, 0x3a, 0x36, 0x07, 0x1c, 0x83, 0x7f, 0xf8,
  0x0b, 0xb3, 0xa2, 0x82, 0xde, 0xba, 0x1a, 0x5e, 0x0f, 0x3b, 0x88, 0x4e,
  0x3d, 0x3d, 0x59, 0x01, 0xd6, 0xca, 0x81, 0xbd, 0xf5, 0xeb, 0x6b, 0xd1,
  0x0e, 0xe9, 0x2c, 0xbc, 0x19, 0x4e, 0x79, 0x2e, 0x69, 0xa7, 0xbd, 0x5f,
  0xd1, 0x7f, 0x58, 0xc5, 0x6a, 0x0e, 0xff, 0x10, 0xc5, 0xa8, 0xa6, 0x96,
  0x02, 0x71, 0x58, 0x15, 0xaf, 0x2d, 0xb9, 0x50, 0x78, 0x39, 0xbc, 0x57,
  0xe7, 0x1f, 0x40, 0xec, 0x81, 0x0e, 0x8e, 0x93, 0x4a, 0x8b, 0x77, 0xbc,
  0x3b, 0x45, 0xdc, 0xac, 0xc5, 0xb9, 0x62, 0xe1, 0x4a, 0x53, 0x4d, 0x41,
  0xc9, 0x81, 0x66, 0x39, 0x54, 0xb4, 0x57, 0x8b, 0xcb, 0x44, 0xb7, 0xea,
  0x15, 0x89, 0x28, 0x1c, 0xbb, 0x89, 0xc1, 0xb1, 0x4c, 0xe7, 0x43, 0xd5,
  0x7f, 0xc4, 0x28, 0x11, 0x90, 0x46, 0xc7, 0xe7, 0x3f, 0x02, 0xc1, 0x52,
  0x66, 0x0a, 0x54, 0xb2, 0x37, 0xff, 0x81, 0xa8, 0xc6, 0x2f, 0xbe, 0xb1,
  0xa3, 0xc8, 0x4a, 0xaf, 0xdb, 0x7f, 0x1f, 0x7e, 0x74, 0x78, 0xb2, 0x2b,
  0xa1, 0x9f, 0xe7, 0x5b, 0x2a, 0x66, 0x25, 0x49, 0xae, 0x25, 0xfe, 0x57,
  0x41, 0x9c, 0x2c, 0x9e, 0x20, 0x6a, 0x29, 0x35, 0x19, 0x1c, 0x2f, 0x4d,
  0x1a, 0x95, 0xa5, 0xb1, 0x86, 0x82, 0x95, 0x09, 0xdc, 0xd8, 0x55, 0x1d,
  0x17, 0xee, 0x19, 0x81, 0x96, 0xfa, 0xeb, 0x89, 0x42, 0xe3, 0x5f, 0x38,
  0x61, 0x9b, 0x16, 0x85, 0x27, 0xae, 0xe3, 0x38, 0x6e, 0x3f, 0x54, 0xcc,
  0xc3, 0xed, 0x01, 0x7f, 0x7d, 0xeb, 0xe9, 0x71, 0x0d, 0x02, 0x50, 0x5c,
  0x81, 0x35, 0xba, 0x48, 0x5d, 0xf2, 0x60, 0x53, 0x0c, 0x3b, 0xce, 0x0f,
  0x60, 0x61, 0x71, 0xc1, 0xb6, 0xa2, 0x6d, 0x00, 0xe0, 0x77, 0xff, 0xff,
  0xe4, 0x77, 0xff, 0xff, 0x8e, 0xf2, 0xff, 0xff, 0x04, 0x00, 0x00, 0x00,
  0xcc, 0x00, 0x00, 0x00, 0x00, 0x00, 0x00, 0x00, 0x00, 0x00, 0x00, 0x00,
  0x00, 0x00, 0x00, 0x00, 0x00, 0x00, 0x00, 0x00, 0x00, 0x00, 0x00, 0x00,
  0x00, 0x00, 0x00, 0x00, 0x00, 0x00, 0x00, 0x00, 0x00, 0x00, 0x00, 0x00,
  0x00, 0x00, 0x00, 0x00, 0x00, 0x00, 0x00, 0x00, 0x00, 0x00, 0x00, 0x00,
  0x00, 0x00, 0x00, 0x00, 0x00, 0x00, 0x00, 0x00, 0x00, 0x00, 0x00, 0x00,
  0x00, 0x00, 0x00, 0x00, 0x00, 0x00, 0x00, 0x00, 0x00, 0x00, 0x00, 0x00,
  0x00, 0x00, 0x00, 0x00, 0x00, 0x00, 0x00, 0x00, 0x00, 0x00, 0x00, 0x00,
  0x00, 0x00, 0x00, 0x00, 0x00, 0x00, 0x00, 0x00, 0x00, 0x00, 0x00, 0x00,
  0x00, 0x00, 0x00, 0x00, 0x00, 0x00, 0x00, 0x00, 0x00, 0x00, 0x00, 0x00,
  0x00, 0x00, 0x00, 0x00, 0x00, 0x00, 0x00, 0x00, 0x00, 0x00, 0x00, 0x00,
  0x00, 0x00, 0x00, 0x00, 0x00, 0x00, 0x00, 0x00, 0x00, 0x00, 0x00, 0x00,
  0x00, 0x00, 0x00, 0x00, 0x00, 0x00, 0x00, 0x00, 0x00, 0x00, 0x00, 0x00,
  0x00, 0x00, 0x00, 0x00, 0x00, 0x00, 0x00, 0x00, 0x00, 0x00, 0x00, 0x00,
  0x00, 0x00, 0x00, 0x00, 0x00, 0x00, 0x00, 0x00, 0x00, 0x00, 0x00, 0x00,
  0x00, 0x00, 0x00, 0x00, 0x00, 0x00, 0x00, 0x00, 0x00, 0x00, 0x00, 0x00,
  0x00, 0x00, 0x00, 0x00, 0x00, 0x00, 0x00, 0x00, 0x00, 0x00, 0x00, 0x00,
  0x00, 0x00, 0x00, 0x00, 0x00, 0x00, 0x00, 0x00, 0x00, 0x00, 0x00, 0x00,
  0x00, 0x00, 0x00, 0x00, 0x66, 0xf3, 0xff, 0xff, 0x04, 0x00, 0x00, 0x00,
  0xcb, 0x01, 0x00, 0x00, 0xca, 0x81, 0xcd, 0x70, 0x9d, 0x84, 0x31, 0xdf,
  0x9d, 0x8b, 0x13, 0xb0, 0x7f, 0xae, 0x7f, 0x81, 0xce, 0x12, 0x6e, 0x4e,
  0x9f, 0x81, 0x1c, 0xfc, 0xc4, 0xae, 0x3b, 0x2a, 0x12, 0xb1, 0x31, 0xa0,
  0x6e, 0x2e, 0xbf, 0xdb, 0xac, 0xf1, 0x2d, 0xff, 0x3b, 0xb3, 0xdd, 0x50,
  0x86, 0xd9, 0x22, 0xf5, 0x81, 0xd3, 0x7f, 0x6d, 0x95, 0x7c, 0x77, 0x89,
  0x31, 0x42, 0x8c, 0x0c, 0x27, 0x16, 0x42, 0xc1, 0xb5, 0x61, 0x91, 0x20,
  0xa9, 0x4c, 0x4c, 0x31, 0x84, 0xcd, 0x39, 0xbb, 0x41, 0x66, 0x15, 0x54,
  0x74, 0x57, 0xd1, 0xe2, 0xbc, 0xbf, 0x55, 0xbb, 0x64, 0xf6, 0xa6, 0x9e,
  0xa8, 0x3b, 0x1d, 0x07, 0xbf, 0xa4, 0xce, 0x1d, 0x3a, 0x6b, 0x81, 0x47,
  0x6b, 0x66, 0xd0, 0x81, 0x72, 0x57, 0x98, 0x60, 0x8d, 0x7f, 0x06, 0x8a,
  0x37, 0x4b, 0xe9, 0x7f, 0x1b, 0xe1, 0x63, 0xd5, 0x81, 0xb0, 0xdf, 0xad,
  0x85, 0xce, 0x05, 0x5c, 0xd6, 0x15, 0xae, 0x81, 0x7c, 0x94, 0xe4, 0x95,
  0x93, 0x8b, 0x51, 0x4f, 0x57, 0x7f, 0x48, 0x81, 0x70, 0x83, 0xf6, 0x3a,
  0xe6, 0xbd, 0x20, 0xcf, 0xb7, 0xc3, 0x1d, 0xee, 0x5e, 0xe4, 0x86, 0x2e,
  0x27, 0x51, 0x4e, 0xec, 0x0a, 0x77, 0xa8, 0x79, 0x7f, 0x7f, 0xa7, 0x3f,
  0x4e, 0xf1, 0x45, 0x21, 0x48, 0xe0, 0x81, 0xdd, 0x3e, 0xfa, 0x6e, 0x7b,
  0x87, 0x83, 0x36, 0x81, 0x6c, 0x6d, 0x7f, 0xbe, 0xf6, 0xa7, 0xd7, 0xb7,
  0xe8, 0x7d, 0x78, 0xe1, 0xf1, 0x37, 0x81, 0x68, 0xa1, 0x7e, 0x68, 0x21,
  0xc1, 0xa0, 0x35, 0x05, 0x23, 0x50, 0xca, 0x37, 0x7f, 0x8c, 0x28, 0xed,
  0x63, 0x8f, 0x6c, 0x7f, 0x04, 0xcb, 0xf2, 0x7f, 0x63, 0xf2, 0xd5, 0x81,
  0x0a, 0xe4, 0x4d, 0xf3, 0x24, 0x87, 0xb3, 0xdb, 0xd7, 0xac, 0xb6, 0xf2,
  0x81, 0x57, 0x39, 0x81, 0x5a, 0x5a, 0xa7, 0x3f, 0xb0, 0x71, 0xce, 0xe2,
  0x9b, 0x2c, 0xf2, 0x56, 0x22, 0x41, 0x20, 0xb9, 0x30, 0xa3, 0xaa, 0x46,
  0x67, 0x0b, 0x63, 0x7d, 0xc5, 0x53, 0xdb, 0x7f, 0x86, 0xd5, 0x2d, 0x22,
  0x2f, 0x32, 0x2a, 0xfa, 0x49, 0x7f, 0xcd, 0x1b, 0x84, 0xaa, 0xac, 0xae,
  0x76, 0x6c, 0x67, 0xa8, 0xa0, 0xf1, 0xf5, 0x1c, 0xf9, 0x20, 0x02, 0x10,
  0x1d, 0x50, 0x8e, 0xc9, 0x7f, 0x7f, 0x81, 0x7d, 0x83, 0x0f, 0x38, 0x24,
  0xd8, 0xef, 0x15, 0x95, 0x63, 0x54, 0x85, 0x01, 0x9d, 0xff, 0x65, 0x7d,
  0x11, 0xb8, 0x70, 0xed, 0x6f, 0x6a, 0x7f, 0x4d, 0x14, 0x7f, 0x81, 0x76,
  0xca, 0x91, 0x9a, 0x4e, 0x9e, 0xc9, 0xe7, 0xe8, 0xc7, 0xe1, 0xac, 0x7f,
  0xad, 0x06, 0xbc, 0x18, 0x81, 0x7f, 0xde, 0xd8, 0xee, 0xbc, 0x5f, 0x7f,
  0x84, 0x9f, 0x12, 0x6a, 0x60, 0xfc, 0x82, 0xf7, 0x32, 0x83, 0xd0, 0xdf,
  0x02, 0x18, 0xd8, 0x7f, 0x36, 0x81, 0x64, 0x7f, 0x8a, 0x84, 0xe1, 0x42,
  0x4a, 0x28, 0x86, 0xf8, 0xd0, 0x81, 0x6d, 0x7f, 0x81, 0x70, 0xed, 0xc3,
  0x88, 0xe9, 0x8c, 0x8f, 0xee, 0xf2, 0xca, 0x7f, 0x82, 0xd4, 0xe7, 0x1d,
  0x43, 0x7f, 0xa3, 0x20, 0xc2, 0x7f, 0x07, 0x65, 0xc5, 0x2c, 0x7f, 0x66,
  0x54, 0x5f, 0x84, 0xda, 0x71, 0x81, 0x11, 0x2a, 0x96, 0xf1, 0xbf, 0x66,
  0x10, 0x11, 0xb9, 0xe9, 0x5d, 0x81, 0xfe, 0x7f, 0x30, 0x23, 0x53, 0xc7,
  0x52, 0xa7, 0x81, 0xb5, 0x22, 0xd1, 0xa7, 0x00, 0x3e, 0xf5, 0xff, 0xff,
  0x04, 0x00, 0x00, 0x00, 0x29, 0x0a, 0x00, 0x00, 0x3d, 0xf3, 0x4f, 0x20,
  0xa6, 0xf1, 0xb8, 0xeb, 0x9c, 0xb5, 0x9c, 0x4e, 0xfb, 0xc1, 0x62, 0xa8,
  0x54, 0x8d, 0xf6, 0x96, 0x7f, 0xc9, 0xa6, 0x5e, 0x0f, 0x55, 0xb9, 0x2e,
  0xbf, 0x4d, 0x2e, 0x45, 0xfa, 0xd8, 0x49, 0x12, 0x3a, 0xca, 0xf1, 0x54,
  0x31, 0x03, 0x71, 0xd7, 0x93, 0x70, 0x2a, 0x1f, 0x59, 0x55, 0x7c, 0xd7,
  0x95, 0x76, 0x73, 0x97, 0x27, 0x05, 0x3b, 0x2d, 0xdd, 0xfa, 0x8e, 0xc1,
  0x1b, 0xfc, 0xdc, 0xa0, 0xfb, 0x9a, 0x5e, 0x5b, 0x30, 0x3d, 0xa9, 0xda,
  0x4c, 0xfa, 0x3e, 0x9f, 0x4c, 0xa6, 0xa6, 0x64, 0x17, 0x24, 0x50, 0x7f,
  0x78, 0xe9, 0x78, 0x26, 0x6b, 0x4e, 0x2d, 0xb2, 0x73, 0x20, 0x10, 0x84,
  0x2a, 0xf8, 0x30, 0x10, 0xd9, 0x74, 0x82, 0x32, 0x73, 0xa4, 0xda, 0xc9,
  0x6f, 0x3b, 0x27, 0x96, 0xfb, 0xaf, 0x79, 0x96, 0xca, 0xf2, 0xe7, 0x11,
  0xfc, 0x81, 0x7d, 0x8b, 0x96, 0x55, 0x09, 0x44, 0xc4, 0x9d, 0x2e, 0x84,
  0x23, 0x21, 0x3c, 0xa3, 0xe6, 0x88, 0x5a, 0x79, 0xa1, 0x34, 0x2a, 0x12,
  0x8e, 0x89, 0xa8, 0x7d, 0xa8, 0x6c, 0x0a, 0x47, 0xff, 0x7a, 0x15, 0x07,
  0x40, 0x57, 0xe6, 0xd4, 0xb2, 0x7f, 0x0d, 0xfa, 0x66, 0xcd, 0x49, 0x22,
  0x3e, 0xf7, 0x1b, 0xef, 0xe8, 0x7c, 0xd4, 0xb3, 0xf9, 0x5b, 0x7b, 0x10,
  0xd5, 0x6b, 0xa3, 0xb7, 0x02, 0xfd, 0xef, 0x04, 0x67, 0x4f, 0xc4, 0x3d,
  0xa1, 0xe4, 0xa9, 0x27, 0x02, 0x12, 0x45, 0xaa, 0x6a, 0x10, 0x5e, 0xd7,
  0xef, 0x8d, 0xea, 0x2f, 0xb0, 0xa7, 0xd1, 0x9d, 0x76, 0x93, 0xa9, 0x2e,
  0x1b, 0x3a, 0x04, 0x56, 0xd6, 0xe3, 0x86, 0xfc, 0xbf, 0x0e, 0x9e, 0xea,
  0x97, 0x7c, 0xe2, 0xdb, 0xda, 0x8a, 0x08, 0x78, 0x8d, 0xf3, 0x81, 0xd4,
  0x92, 0xea, 0x8d, 0xf8, 0x4b, 0x1a, 0xd4, 0x3c, 0x72, 0x4e, 0xe8, 0xd2,
  0xe6, 0x41, 0x7e, 0x22, 0x90, 0xc7, 0x8a, 0x34, 0x52, 0x16, 0xcb, 0x1f,
  0xd1, 0x52, 0xe8, 0xb5, 0x4b, 0x81, 0x73, 0xd4, 0xd8, 0x50, 0x11, 0x65,
  0x6b, 0x2e, 0xb2, 0x3c, 0x98, 0x37, 0x72, 0x36, 0x07, 0x90, 0xe8, 0xa9,
  0x39, 0xbf, 0xb7, 0xb1, 0xe5, 0xda, 0x6d, 0x8c, 0x64, 0x62, 0xb9, 0xa9,
  0x6e, 0xeb, 0x00, 0x24, 0x2f, 0xd6, 0xe9, 0x37, 0x1b, 0xf8, 0x18, 0x08,
  0x23, 0x6c, 0xa6, 0x7b, 0xd1, 0x8d, 0x35, 0x62, 0x97, 0xd2, 0x68, 0x89,
  0xfa, 0x71, 0xe3, 0xa5, 0x5e, 0x61, 0x77, 0xd6, 0x7f, 0xd7, 0xe6, 0xf1,
  0xcb, 0x3b, 0x10, 0xc0, 0x98, 0xec, 0x28, 0xb5, 0x84, 0x5c, 0x5a, 0x06,
  0xad, 0x00, 0x56, 0x84, 0x00, 0x23, 0x65, 0x09, 0x2d, 0x83, 0xdd, 0x16,
  0x84, 0x79, 0xac, 0x6b, 0xb6, 0xbd, 0xc1, 0xde, 0x36, 0xe3, 0xde, 0x72,
  0xc0, 0x81, 0xc3, 0xe3, 0x69, 0xef, 0xae, 0x3b, 0xf0, 0x15, 0x52, 0x09,
  0x1e, 0xd3, 0xec, 0x83, 0xab, 0xb6, 0x4f, 0x14, 0xb4, 0x36, 0x2e, 0xde,
  0xc7, 0xa8, 0xba, 0x79, 0x99, 0x37, 0xa9, 0x93, 0x09, 0xc3, 0x1b, 0x1a,
  0x81, 0x2d, 0xca, 0xd5, 0x1c, 0x8d, 0x99, 0x37, 0x2a, 0x6b, 0x28, 0x1e,
  0x87, 0xe2, 0x92, 0x7a, 0x3a, 0x5a, 0x4a, 0xbd, 0xac, 0x29, 0x5b, 0x83,
  0xed, 0x1e, 0xc7, 0xb8, 0xc8, 0xcd, 0x49, 0x5e, 0x3b, 0x81, 0xee, 0x13,
  0x66, 0xca, 0xf2, 0x12, 0xfe, 0x4a, 0xc2, 0x90, 0x5f, 0x0e, 0xeb, 0x71,
  0xa4, 0x00, 0x13, 0xab, 0x22, 0x44, 0xd1, 0x35, 0xe9, 0x35, 0xc2, 0x1f,
  0x23, 0x3d, 0x48, 0x07, 0x48, 0x02, 0x8d, 0x37, 0x7d, 0x17, 0xa2, 0xa2,
  0x54, 0x45, 0x55, 0xfa, 0xd1, 0xb9, 0x82, 0x32, 0xb2, 0x79, 0x9d, 0x98,
  0x8a, 0xb9, 0x22, 0x5a, 0x02, 0x9c, 0x0e, 0xa7, 0x7f, 0xe5, 0x3b, 0x30,
  0x52, 0x4e, 0xde, 0x2c, 0xd9, 0x41, 0x6c, 0x14, 0x2e, 0x62, 0x2c, 0x4b,
  0x78, 0x3e, 0xf0, 0xaf, 0x91, 0xdb, 0x71, 0x4a, 0x5d, 0x89, 0x0f, 0x2e,
  0x81, 0xf8, 0xbd, 0x9b, 0x03, 0xab, 0x02, 0xd4, 0x79, 0x34, 0x39, 0x57,
  0x38, 0x4c, 0xca, 0x39, 0x60, 0x81, 0xef, 0x74, 0xf3, 0xf5, 0xdb, 0x8c,
  0xec, 0x35, 0xa0, 0xbf, 0x33, 0xbd, 0x70, 0x63, 0xb1, 0x46, 0x74, 0xc0,
  0x2a, 0x2d, 0xe3, 0x11, 0x2c, 0xf5, 0x0c, 0xc9, 0xea, 0x14, 0x50, 0x3e,
  0x6e, 0x95, 0xfe, 0xef, 0xa6, 0x0a, 0x4a, 0x83, 0xef, 0x2b, 0x5a, 0x13,
  0x36, 0xf2, 0x31, 0x85, 0xf9, 0x00, 0x64, 0xfe, 0x0d, 0x7f, 0x9b, 0x51,
  0xa8, 0x84, 0x99, 0xf7, 0x41, 0x2f, 0x8d, 0x4e, 0x09, 0x7c, 0xc1, 0xc7,
  0xb4, 0x5b, 0x63, 0x27, 0xfe, 0xd3, 0xa0, 0x6b, 0x38, 0x73, 0x50, 0xe5,
  0xc3, 0x04, 0xa5, 0xae, 0xf7, 0x27, 0x98, 0x76, 0xa0, 0x2e, 0x41, 0x62,
  0xdb, 0x3c, 0xfa, 0xaa, 0x54, 0x7f, 0x37, 0x11, 0x2d, 0x96, 0x8b, 0x50,
  0xeb, 0x5c, 0xea, 0xe9, 0x78, 0xde, 0xa9, 0xd1, 0xce, 0x5d, 0x12, 0xc8,
  0xf8, 0xd0, 0x3b, 0x8a, 0x6f, 0xdf, 0x6e, 0x79, 0x1e, 0xe0, 0x5c, 0x44,
  0x69, 0x5f, 0x33, 0xea, 0x65, 0x0e, 0xe8, 0x7c, 0x15, 0xf1, 0x68, 0xab,
  0x4c, 0x12, 0xe9, 0x6a, 0x5a, 0xaf, 0x11, 0x82, 0xc3, 0x7f, 0xce, 0x28,
  0x7e, 0x7f, 0xe9, 0xaa, 0x6f, 0x22, 0xad, 0x72, 0xc6, 0x5e, 0x05, 0x6a,
  0x0a, 0x2d, 0x67, 0x31, 0x2d, 0xfa, 0x36, 0xc0, 0x8f, 0xa6, 0x42, 0x25,
  0x5b, 0xa2, 0xa1, 0xdb, 0x79, 0x32, 0x95, 0x2b, 0x6d, 0x7e, 0x0a, 0xf3,
  0xcd, 0xed, 0xdd, 0x95, 0x3b, 0xb8, 0x03, 0x68, 0x77, 0x42, 0x22, 0x95,
  0x7f, 0x07, 0xa9, 0xe9, 0x76, 0xab, 0xd9, 0x51, 0x6f, 0x59, 0xa1, 0x66,
  0x3f, 0x0a, 0x8a, 0x3f, 0xb9, 0xd3, 0x7b, 0xb2, 0xce, 0xe5, 0x55, 0x63,
  0x7e, 0x63, 0x46, 0xd7, 0x57, 0xc1, 0x4f, 0xb1, 0xc3, 0x36, 0x90, 0xb2,
  0x7f, 0x8d, 0x59, 0x16, 0x51, 0xc2, 0x12, 0xdc, 0x16, 0x6d, 0xfb, 0xb8,
  0x54, 0x59, 0x42, 0xee, 0xe0, 0x9c, 0x3f, 0x64, 0x26, 0x9a, 0x7f, 0x5b,
  0x15, 0xb2, 0xaf, 0xe6, 0xb8, 0x55, 0x96, 0xf9, 0x8b, 0xe5, 0x31, 0x39,
  0x19, 0x0b, 0xc1, 0x27, 0xa5, 0xb7, 0x81, 0x8a, 0x6d, 0x40, 0x9b, 0xf4,
  0xb4, 0x99, 0x33, 0x8b, 0x97, 0xf6, 0x21, 0x6a, 0x53, 0xcd, 0x60, 0x7d,
  0x83, 0x00, 0x6c, 0x35, 0x23, 0x66, 0x3f, 0xa1, 0xe3, 0x4e, 0xdb, 0x7d,
  0x47, 0x57, 0xb3, 0x01, 0xde, 0x39, 0xda, 0x52, 0xc7, 0x9e, 0x0f, 0x8a,
  0xf3, 0xce, 0xca, 0xa2, 0x9b, 0x5e, 0xff, 0x14, 0x90, 0x7f, 0x9d, 0x1e,
  0xee, 0x6a, 0xfb, 0xaa, 0xa7, 0xa8, 0xd0, 0xb2, 0x3a, 0xa5, 0x5b, 0xda,
  0xe1, 0x2b, 0x40, 0xf1, 0xae, 0x23, 0xe8, 0x2e, 0x4b, 0x26, 0xb1, 0xce,
  0x9a, 0xae, 0x27, 0x68, 0x54, 0xb0, 0xf5, 0xf0, 0x7e, 0x8e, 0xa2, 0x5a,
  0x6f, 0xac, 0x42, 0x24, 0x76, 0xb0, 0x90, 0x61, 0x76, 0x57, 0xd6, 0x8c,
  0xf0, 0x6f, 0xee, 0x6e, 0x59, 0xda, 0xab, 0x1a, 0xad, 0x13, 0x27, 0xb2,
  0x77, 0x60, 0xca, 0xf0, 0x92, 0x2f, 0xb6, 0x0f, 0x7e, 0xfe, 0x33, 0x1f,
  0xb2, 0x57, 0x7e, 0x5e, 0xa4, 0xaf, 0x62, 0x2b, 0xd7, 0x7a, 0x13, 0xcf,
  0x38, 0x7f, 0xe0, 0x82, 0x0d, 0x91, 0x8c, 0x83, 0x7b, 0xc0, 0x46, 0x7d,
  0x7e, 0x43, 0xd1, 0x62, 0x2d, 0x5e, 0x00, 0x13, 0x0d, 0x50, 0x65, 0x5c,
  0x7f, 0x7b, 0x61, 0x92, 0x76, 0x94, 0x3b, 0x54, 0x13, 0xad, 0xd3, 0x89,
  0x9c, 0x6c, 0xcf, 0x6f, 0x24, 0x63, 0x3e, 0x32, 0x66, 0xa4, 0x8f, 0x69,
  0xe3, 0x74, 0xdc, 0x5c, 0x08, 0x9e, 0xb1, 0x1f, 0xc0, 0x81, 0xd7, 0x49,
  0xe6, 0xe9, 0x3b, 0x7f, 0xdb, 0x3e, 0xe0, 0x77, 0x5b, 0x87, 0x0e, 0x67,
  0x4a, 0x8e, 0xe9, 0xe0, 0x58, 0xe1, 0xc9, 0xcc, 0x73, 0x38, 0x98, 0x3a,
  0x64, 0xc7, 0x2c, 0x08, 0xc2, 0xac, 0x0b, 0xa6, 0x33, 0x5f, 0xec, 0x52,
  0x8b, 0x4e, 0x78, 0x2a, 0x66, 0x14, 0x96, 0x32, 0x78, 0x32, 0x7e, 0x77,
  0x38, 0xba, 0x4b, 0x4a, 0x1f, 0x09, 0x0f, 0x22, 0xa5, 0xc5, 0xcf, 0x30,
  0xbe, 0x26, 0x29, 0x3b, 0x9a, 0x85, 0x35, 0x5b, 0xf0, 0x76, 0xbb, 0xbc,
  0x9e, 0xfe, 0xf3, 0xc7, 0xca, 0x23, 0x7f, 0xa4, 0x94, 0xc9, 0xb4, 0x9f,
  0x6a, 0xf0, 0x3d, 0xcf, 0x59, 0xc5, 0x79, 0x10, 0x5f, 0x45, 0x68, 0x93,
  0x74, 0x23, 0x3b, 0x02, 0xad, 0xf3, 0xb2, 0x61, 0x21, 0x99, 0x98, 0xa9,
  0x88, 0x71, 0x36, 0x9b, 0x56, 0xa5, 0x86, 0x40, 0xad, 0x12, 0x72, 0xa0,
  0x4d, 0xe3, 0x6c, 0x48, 0x90, 0xfd, 0x65, 0x12, 0x15, 0x3f, 0x6a, 0x4c,
  0x79, 0x1c, 0xe5, 0x19, 0xb9, 0x83, 0x06, 0x55, 0x14, 0xfd, 0x81, 0xf7,
  0x17, 0x50, 0xe4, 0x55, 0xd1, 0x7a, 0x18, 0xd8, 0xe2, 0xd8, 0x9e, 0x90,
  0x48, 0xb6, 0x33, 0x0b, 0xda, 0x7f, 0x77, 0x82, 0x02, 0x3d, 0x88, 0x9f,
  0x60, 0x66, 0x04, 0x7d, 0x0d, 0x05, 0xcc, 0xba, 0xa1, 0xd6, 0x6f, 0x55,
  0xc4, 0x45, 0xc8, 0x81, 0x23, 0x0e, 0x96, 0x18, 0xa7, 0x73, 0x18, 0x93,
  0xc6, 0x8e, 0x4c, 0x49, 0x30, 0x8b, 0x3d, 0x74, 0xf7, 0x25, 0xeb, 0x06,
  0x57, 0xdd, 0x0d, 0x3a, 0x30, 0xc6, 0x5a, 0xd9, 0xda, 0x6b, 0x7f, 0xa2,
  0x40, 0xc9, 0xa4, 0x2d, 0x6b, 0x0c, 0xc0, 0x8f, 0x90, 0xcf, 0x33, 0xac,
  0xe0, 0xfe, 0x97, 0x79, 0xc1, 0x60, 0x9c, 0x95, 0x08, 0x41, 0xa8, 0xf2,
  0xd1, 0x47, 0xdd, 0x0c, 0xe2, 0xf0, 0xe3, 0x43, 0xf0, 0x25, 0x16, 0x01,
  0x9c, 0xda, 0x3d, 0xcc, 0x3d, 0x39, 0xc5, 0xd8, 0xad, 0x8e, 0xdb, 0xc2,
  0x88, 0x26, 0x6f, 0x0b, 0x7f, 0xde, 0xcc, 0xb5, 0x19, 0xcb, 0xbc, 0xe0,
  0xc9, 0xa9, 0x6a, 0x0c, 0xfb, 0x34, 0x88, 0x1b, 0xf4, 0xbb, 0xbc, 0x3b,
  0x52, 0xe4, 0x7a, 0xd3, 0xc4, 0x25, 0xa1, 0x2c, 0x1b, 0x65, 0x2b, 0x21,
  0xc7, 0x41, 0xf6, 0x9b, 0x4e, 0x62, 0xf3, 0x7a, 0x81, 0xd0, 0x03, 0x4f,
  0x38, 0xae, 0xe7, 0x02, 0xa5, 0x4a, 0x1e, 0x84, 0x3e, 0x13, 0x61, 0xc0,
  0x17, 0x58, 0x85, 0x91, 0x3a, 0xbf, 0x1b, 0xeb, 0x2c, 0xf5, 0x4b, 0x27,
  0x26, 0x1c, 0xf6, 0xe3, 0x3a, 0xf0, 0x60, 0x38, 0x5c, 0xf1, 0x3c, 0x84,
  0x06, 0xd4, 0x55, 0x33, 0x99, 0xda, 0x10, 0x7f, 0x1e, 0xc2, 0x76, 0x62,
  0x6a, 0x2f, 0xe4, 0x95, 0xda, 0xa2, 0x4d, 0x72, 0x43, 0x66, 0xd8, 0x96,
  0xfc, 0xfb, 0x18, 0x3b, 0x94, 0x1f, 0xa9, 0xc8, 0xc5, 0x6d, 0x66, 0x2d,
  0x70, 0xd3, 0x54, 0xc7, 0x43, 0xbb, 0x37, 0x62, 0xbd, 0x4d, 0xcc, 0xb9,
  0x5d, 0xfd, 0x6a, 0x50, 0x96, 0x99, 0xa1, 0xb5, 0x16, 0x88, 0x7f, 0xa7,
  0x81, 0xe8, 0xd1, 0x1e, 0x1f, 0xa6, 0x9f, 0x43, 0x7c, 0x4c, 0xf1, 0xce,
  0x83, 0xc7, 0x5d, 0xc4, 0xab, 0xd4, 0x05, 0xa5, 0x76, 0x8a, 0x81, 0x4a,
  0x78, 0xe3, 0x18, 0xd8, 0xd7, 0x12, 0x26, 0xf7, 0xc6, 0xeb, 0xc6, 0x83,
  0xbe, 0x20, 0xe6, 0xa4, 0xa5, 0x20, 0xc0, 0x0a, 0x8e, 0x88, 0xdf, 0x5e,
  0x78, 0xad, 0xdf, 0xb8, 0xf0, 0x90, 0xd3, 0x8a, 0xd3, 0x38, 0x63, 0x23,
  0xa0, 0xac, 0x0e, 0x72, 0x0a, 0xb9, 0xe4, 0x29, 0xda, 0xe1, 0x9d, 0x32,
  0x9a, 0xff, 0x8d, 0xaf, 0x32, 0x2a, 0x64, 0xfa, 0xcb, 0x3b, 0x15, 0xaf,
  0x1e, 0x50, 0xae, 0xd4, 0x5a, 0x79, 0x7f, 0x3a, 0x52, 0x64, 0x1f, 0x9e,
  0x6d, 0x50, 0xf4, 0x2d, 0x58, 0xf9, 0x43, 0xdd, 0x3e, 0x06, 0x90, 0x72,
  0x82, 0x33, 0x87, 0x4e, 0xf6, 0x7f, 0xf2, 0x68, 0xe1, 0x93, 0xdb, 0xe6,
  0x03, 0xc4, 0x08, 0x7b, 0xbc, 0xde, 0x0d, 0x40, 0x97, 0xed, 0xc7, 0x95,
  0xdf, 0xb2, 0x06, 0x0b, 0x70, 0x28, 0x03, 0x5f, 0x28, 0xc9, 0x3c, 0x93,
  0x19, 0x4c, 0x4f, 0x06, 0xdf, 0xf4, 0x3a, 0xc5, 0x1c, 0x8a, 0x92, 0xeb,
  0xb4, 0x6f, 0xef, 0x94, 0xfa, 0xc1, 0x64, 0x7f, 0x9c, 0x6c, 0xf4, 0x98,
  0x6f, 0x24, 0x07, 0x17, 0x43, 0xc2, 0xe1, 0xe6, 0xf5, 0xa4, 0x0d, 0x05,
  0x8b, 0x12, 0x14, 0xfb, 0xb6, 0xb0, 0xd8, 0x89, 0xa4, 0xe0, 0x6e, 0x27,
  0xa1, 0xb5, 0x55, 0x6a, 0x1c, 0x6f, 0x32, 0x99, 0x18, 0x7f, 0xf4, 0x5d,
  0xf7, 0xa4, 0x77, 0x64, 0x8d, 0x40, 0x13, 0x35, 0x7d, 0x43, 0xf8, 0x7e,
  0x84, 0x14, 0xea, 0x2f, 0xd3, 0x35, 0xe4, 0x37, 0x27, 0x1e, 0x8d, 0xa6,
  0x8f, 0x8c, 0x87, 0x41, 0x2b, 0x44, 0xa3, 0x26, 0xb8, 0x3a, 0xa2, 0xe3,
  0xbe, 0x0c, 0x83, 0x57, 0x69, 0xae, 0x50, 0x5a, 0x66, 0x47, 0xa4, 0x8b,
  0x3a, 0xe0, 0x1a, 0x78, 0x6d, 0x94, 0xc9, 0x55, 0x4f, 0x31, 0x78, 0xc4,
  0x1a, 0x7a, 0xa0, 0x1b, 0x52, 0xc4, 0x7c, 0x98, 0x8a, 0xe8, 0xd6, 0xa0,
  0x7f, 0xe8, 0x8f, 0x86, 0x6c, 0xe9, 0x8c, 0x18, 0xb9, 0x5c, 0x31, 0x21,
  0xda, 0x62, 0xb1, 0xf5, 0x55, 0x94, 0x9d, 0xe2, 0x69, 0xf2, 0x3d, 0x93,
  0x34, 0xc2, 0xbd, 0x63, 0x9b, 0x6b, 0x15, 0x18, 0x92, 0xe3, 0x76, 0x81,
  0x1d, 0x90, 0x2d, 0x9d, 0xa9, 0x4a, 0x1b, 0xdf, 0xa0, 0xba, 0x58, 0x43,
  0x3d, 0x66, 0xa6, 0x56, 0x13, 0x96, 0x9b, 0xaf, 0x92, 0x25, 0x6a, 0xc7,
  0x78, 0x0c, 0xb8, 0x56, 0x7b, 0x27, 0xf5, 0x60, 0x1f, 0xad, 0x53, 0x70,
  0x0f, 0x02, 0xdf, 0xd4, 0x4e, 0x7e, 0xfd, 0xd2, 0xb6, 0x25, 0x57, 0xb9,
  0xa1, 0xf7, 0x19, 0x35, 0xb9, 0x23, 0x2e, 0x5b, 0x77, 0x6d, 0x0e, 0x61,
  0xdc, 0xab, 0xb0, 0x22, 0x8f, 0x7b, 0x78, 0x96, 0x89, 0xd6, 0x81, 0x3d,
  0x44, 0x64, 0x56, 0xc3, 0xf0, 0x77, 0xa8, 0x45, 0x25, 0xca, 0x33, 0x82,
  0xb3, 0x8b, 0x7a, 0x08, 0x31, 0xe4, 0xe6, 0xb4, 0x54, 0xea, 0xa7, 0xdb,
  0xe2, 0x25, 0xe3, 0x72, 0x46, 0x1f, 0x8f, 0xd9, 0x24, 0xa6, 0x26, 0xa2,
  0x78, 0x3a, 0x10, 0x17, 0x0b, 0x61, 0xb9, 0x83, 0xd5, 0x71, 0x81, 0xe9,
  0x55, 0xcb, 0x06, 0x20, 0xb9, 0xd6, 0xaf, 0xc3, 0x8f, 0x1b, 0x4b, 0x6e,
  0x9e, 0xb1, 0x3b, 0x2e, 0x40, 0xca, 0xa6, 0x11, 0x28, 0xb6, 0x7e, 0xe9,
  0xf6, 0xed, 0x57, 0xd9, 0xfb, 0x58, 0xfa, 0x0d, 0xf8, 0x6b, 0x73, 0x7f,
  0xc7, 0x5d, 0x59, 0xac, 0x66, 0x67, 0x2c, 0x48, 0xac, 0x65, 0x7d, 0xcb,
  0x86, 0xf5, 0xff, 0xe0, 0x72, 0x3c, 0x25, 0xa4, 0xd5, 0xcb, 0xbe, 0xd8,
  0xcd, 0xfd, 0x37, 0x7f, 0x9a, 0x6a, 0x67, 0xa5, 0x5c, 0x7d, 0xf7, 0xd2,
  0xa4, 0x53, 0x26, 0xaf, 0x62, 0xf7, 0xf0, 0xd9, 0xa4, 0x75, 0xfb, 0xf7,
  0x89, 0x90, 0x92, 0xe3, 0x98, 0x2c, 0x07, 0x2f, 0x72, 0xdf, 0xd3, 0x0c,
  0xad, 0x8b, 0x01, 0xc1, 0xcb, 0xd4, 0xa8, 0x25, 0x96, 0xd2, 0xd3, 0xc7,
  0x04, 0x67, 0x97, 0x16, 0x5e, 0x33, 0x13, 0x59, 0x1f, 0xad, 0xf4, 0x5c,
  0x6d, 0x66, 0x2b, 0x7f, 0xbd, 0x42, 0xd4, 0x55, 0xf4, 0x83, 0xaf, 0x9c,
  0x43, 0x62, 0xec, 0xb2, 0xb8, 0xe3, 0x62, 0x10, 0xb4, 0x94, 0x29, 0x71,
  0x06, 0xf5, 0x9f, 0xab, 0xd6, 0x1c, 0xed, 0xed, 0x71, 0xd6, 0xbc, 0xfb,
  0xc3, 0xd0, 0x86, 0x98, 0xb1, 0x71, 0x22, 0x7c, 0xe5, 0x7f, 0x15, 0x17,
  0x1e, 0x02, 0xff, 0x5f, 0xba, 0xee, 0x46, 0xdd, 0x10, 0xb6, 0x88, 0x81,
  0x7f, 0x2b, 0x88, 0xc8, 0x68, 0x93, 0x67, 0x9d, 0x21, 0xcb, 0x97, 0xfc,
  0xc2, 0x6e, 0xc4, 0x05, 0x74, 0xbc, 0x69, 0xa9, 0x31, 0xea, 0xa7, 0x44,
  0x11, 0x8f, 0x44, 0x9c, 0xd7, 0x62, 0xb1, 0xe3, 0xd7, 0x91, 0x40, 0x48,
  0x3d, 0xe3, 0xdd, 0xdb, 0xb8, 0x18, 0x25, 0x8c, 0x50, 0x0c, 0xae, 0x7f,
  0xd3, 0xbb, 0xc4, 0x0c, 0x97, 0x22, 0x7b, 0x59, 0xad, 0x0c, 0x92, 0xed,
  0xa8, 0xb8, 0x91, 0xe7, 0x21, 0x10, 0x21, 0x74, 0x5c, 0xbb, 0x9f, 0xbc,
  0x4a, 0x14, 0xbd, 0xcb, 0x64, 0xad, 0xd7, 0x0c, 0x2e, 0x75, 0x2c, 0xe7,
  0x18, 0xce, 0x58, 0x7d, 0xbc, 0x6b, 0x73, 0x2a, 0xff, 0x7a, 0xc3, 0x10,
  0xd5, 0xce, 0x5b, 0x66, 0x5c, 0x8a, 0xbb, 0x07, 0xc3, 0xe5, 0x8c, 0xa1,
  0x5a, 0x9b, 0x70, 0xed, 0x81, 0x4a, 0x25, 0x6c, 0xb9, 0xee, 0xcd, 0x1f,
  0x2c, 0xa1, 0x4b, 0xa6, 0x60, 0x8b, 0x08, 0xf2, 0xbf, 0x3f, 0xbf, 0x2a,
  0x78, 0xaa, 0x4e, 0xf1, 0xc1, 0x48, 0x73, 0xd0, 0xf2, 0x4b, 0x78, 0x82,
  0x41, 0xea, 0x27, 0xfb, 0x2e, 0x8a, 0x1d, 0x8f, 0xbb, 0x23, 0x74, 0xf4,
  0x93, 0x81, 0xe3, 0x43, 0x15, 0x8b, 0xe4, 0x37, 0x30, 0xf2, 0x8f, 0x88,
  0xa2, 0x26, 0x11, 0x1a, 0xe7, 0x35, 0x08, 0x7a, 0x83, 0x96, 0x35, 0xe3,
  0x89, 0xa7, 0x2d, 0xf0, 0x3b, 0xf7, 0xd5, 0x2f, 0x37, 0x12, 0x6e, 0xe3,
  0x84, 0x0e, 0xa4, 0x3b, 0xcb, 0xa9, 0xad, 0x5d, 0x6e, 0x70, 0x92, 0x7a,
  0xb2, 0x48, 0xc0, 0xfb, 0x50, 0x74, 0x60, 0x7f, 0x98, 0x25, 0x7e, 0x96,
  0x75, 0x65, 0xa6, 0x27, 0x9b, 0xe9, 0xf4, 0xcb, 0xaf, 0x42, 0x41, 0x0a,
  0xd8, 0x8c, 0x7b, 0x36, 0xbb, 0xc3, 0x60, 0xdd, 0x4c, 0x6a, 0xaf, 0x8f,
  0x59, 0xd5, 0x8b, 0xb2, 0xe6, 0xc1, 0x56, 0x32, 0x89, 0xa7, 0xa3, 0xe1,
  0x3e, 0xe5, 0xb1, 0x1f, 0xbf, 0xa6, 0xec, 0x4c, 0xab, 0x9a, 0x9f, 0x43,
  0x5e, 0xd2, 0x06, 0xe3, 0x67, 0x45, 0xb8, 0x55, 0x74, 0x8a, 0xb8, 0xb2,
  0x1a, 0x51, 0x40, 0x79, 0x61, 0x90, 0xd9, 0x0b, 0x7b, 0xd9, 0x0a, 0x7f,
  0x6e, 0x0b, 0x41, 0x5b, 0xbb, 0xbf, 0xbc, 0x98, 0x9b, 0x43, 0x6e, 0x28,
  0x0f, 0x09, 0x87, 0xc1, 0x8a, 0xfc, 0xa4, 0xc4, 0x60, 0xe4, 0x7a, 0xb5,
  0xd6, 0xe1, 0x86, 0x57, 0xbc, 0x09, 0xf3, 0xaf, 0xef, 0x95, 0xf8, 0x42,
  0x4c, 0x81, 0xe9, 0x2d, 0x7c, 0x68, 0xb8, 0x25, 0xc0, 0xda, 0x72, 0xe1,
  0x1c, 0xe2, 0xd1, 0xa3, 0x14, 0x64, 0xb3, 0x60, 0xdf, 0xba, 0xc9, 0x70,
  0x77, 0x28, 0x3f, 0x87, 0x94, 0x2f, 0x79, 0x50, 0x63, 0x6c, 0x4f, 0xde,
  0xe4, 0x0e, 0x40, 0xfa, 0xc5, 0x2b, 0xf0, 0xd7, 0xa4, 0xb6, 0x66, 0xe8,
  0x73, 0xac, 0x2d, 0x7a, 0x0e, 0x67, 0xb0, 0xad, 0x9d, 0x65, 0x73, 0x81,
  0x01, 0xe6, 0x17, 0xdc, 0x17, 0xc4, 0x55, 0x61, 0x1f, 0x48, 0xc3, 0x6d,
  0xd3, 0xe1, 0x81, 0xd2, 0x78, 0x1c, 0x47, 0x01, 0x41, 0x78, 0xd6, 0x5f,
  0x28, 0x19, 0x34, 0x5f, 0xe5, 0x22, 0x12, 0xf0, 0xce, 0x47, 0x12, 0x9d,
  0xa3, 0x95, 0xc5, 0xd2, 0x65, 0x17, 0x0a, 0xe5, 0xcb, 0xf6, 0x45, 0x7d,
  0x6c, 0x4f, 0x91, 0xc1, 0x7f, 0xfa, 0x35, 0x5a, 0x1a, 0x62, 0xf2, 0x12,
  0x57, 0x95, 0x7a, 0xe4, 0x94, 0x1f, 0x4f, 0xd2, 0x8a, 0x37, 0x34, 0x04,
  0x82, 0x3c, 0x12, 0x01, 0x90, 0xe7, 0x06, 0xf4, 0xad, 0x0c, 0x09, 0xc8,
  0xf3, 0x88, 0x35, 0x1a, 0xbc, 0x0c, 0xcf, 0xa9, 0x1c, 0x14, 0x7a, 0x6c,
  0x65, 0x9e, 0x92, 0x7b, 0x7f, 0x0c, 0x98, 0xec, 0x47, 0xc1, 0x02, 0xcd,
  0xef, 0x05, 0x12, 0x59, 0xe8, 0x28, 0xc2, 0x1d, 0xce, 0x2e, 0x19, 0x66,
  0x81, 0x24, 0xe5, 0x54, 0x7e, 0x85, 0x11, 0x5e, 0x03, 0x95, 0x58, 0x0b,
  0x5b, 0x9a, 0x49, 0x7b, 0xf9, 0x6c, 0x50, 0x0a, 0x21, 0x1a, 0x53, 0x82,
  0x7a, 0xe0, 0xa1, 0x93, 0xf0, 0x42, 0x9b, 0x63, 0xe7, 0xc0, 0x70, 0x6e,
  0x9d, 0xd2, 0x13, 0x13, 0x09, 0xa5, 0xee, 0x2e, 0x1d, 0xe1, 0xa9, 0x3c,
  0x14, 0x7f, 0xaa, 0x59, 0x9d, 0x00, 0x00, 0x00, 0x76, 0xff, 0xff, 0xff,
  0x04, 0x00, 0x00, 0x00, 0x66, 0x00, 0x00, 0x00, 0xc1, 0xd0, 0x81, 0x90,
  0x8a, 0xb1, 0x82, 0x40, 0x4b, 0x07, 0xb7, 0xd3, 0x98, 0x97, 0x48, 0x5b,
  0xe3, 0xdf, 0x51, 0x27, 0x13, 0x55, 0xcf, 0xb6, 0x07, 0xca, 0x0d, 0x5a,
  0x8b, 0xdf, 0xfc, 0xdf, 0x4e, 0x51, 0xa8, 0xd9, 0xc7, 0x49, 0xfb, 0x36,
  0xc3, 0xc4, 0x5b, 0x20, 0xd8, 0x7b, 0x5b, 0xb1, 0x6e, 0xff, 0xfb, 0xd3,
  0x1e, 0xe0, 0xb9, 0x6e, 0xff, 0x76, 0x74, 0xa7, 0xde, 0x58, 0xa6, 0x68,
  0x0d, 0x5b, 0xf0, 0x49, 0x20, 0x50, 0xab, 0xdc, 0x2b, 0x78, 0x6c, 0x88,
  0x8b, 0xc6, 0xdf, 0xea, 0x9b, 0x12, 0xe2, 0x9a, 0xc1, 0x79, 0x96, 0x1b,
  0x3a, 0x56, 0x70, 0x0b, 0xe8, 0x58, 0xec, 0x90, 0x8d, 0x0c, 0x95, 0xf2,
  0x8d, 0xaf, 0x00, 0x00, 0xea, 0xff, 0xff, 0xff, 0x04, 0x00, 0x00, 0x00,
  0x08, 0x00, 0x00, 0x00, 0x01, 0x00, 0x00, 0x00, 0x02, 0x00, 0x00, 0x00,
  0x00, 0x00, 0x06, 0x00, 0x08, 0x00, 0x04, 0x00, 0x06, 0x00, 0x00, 0x00,
  0x04, 0x00, 0x00, 0x00, 0x20, 0x00, 0x00, 0x00, 0x00, 0x00, 0x00, 0x00,
  0x00, 0x00, 0x00, 0x00, 0x00, 0x00, 0x00, 0x00, 0x01, 0x00, 0x00, 0x00,
  0x00, 0x00, 0x00, 0x00, 0x01, 0x00, 0x00, 0x00, 0x00, 0x00, 0x00, 0x00,
  0x00, 0x00, 0x00, 0x00, 0x8c, 0x85, 0xff, 0xff, 0x90, 0x85, 0xff, 0xff,
  0x0f, 0x00, 0x00, 0x00, 0x4d, 0x4c, 0x49, 0x52, 0x20, 0x43, 0x6f, 0x6e,
  0x76, 0x65, 0x72, 0x74, 0x65, 0x64, 0x2e, 0x00, 0x01, 0x00, 0x00, 0x00,
  0x14, 0x00, 0x00, 0x00, 0x00, 0x00, 0x0e, 0x00, 0x18, 0x00, 0x14, 0x00,
  0x10, 0x00, 0x0c, 0x00, 0x08, 0x00, 0x04, 0x00, 0x0e, 0x00, 0x00, 0x00,
  0x14, 0x00, 0x00, 0x00, 0x1c, 0x00, 0x00, 0x00, 0xdc, 0x08, 0x00, 0x00,
  0xe0, 0x08, 0x00, 0x00, 0xe4, 0x08, 0x00, 0x00, 0x04, 0x00, 0x00, 0x00,
  0x6d, 0x61, 0x69, 0x6e, 0x00, 0x00, 0x00, 0x00, 0x21, 0x00, 0x00, 0x00,
  0x78, 0x08, 0x00, 0x00, 0x10, 0x08, 0x00, 0x00, 0xc0, 0x07, 0x00, 0x00,
  0x8c, 0x07, 0x00, 0x00, 0x30, 0x07, 0x00, 0x00, 0xf0, 0x06, 0x00, 0x00,
  0xa8, 0x06, 0x00, 0x00, 0x68, 0x06, 0x00, 0x00, 0x34, 0x06, 0x00, 0x00,
  0xe8, 0x05, 0x00, 0x00, 0xa8, 0x05, 0x00, 0x00, 0x60, 0x05, 0x00, 0x00,
  0x20, 0x05, 0x00, 0x00, 0xec, 0x04, 0x00, 0x00, 0xa0, 0x04, 0x00, 0x00,
  0x60, 0x04, 0x00, 0x00, 0x18, 0x04, 0x00, 0x00, 0xd8, 0x03, 0x00, 0x00,
  0x90, 0x03, 0x00, 0x00, 0x50, 0x03, 0x00, 0x00, 0x08, 0x03, 0x00, 0x00,
  0xc8, 0x02, 0x00, 0x00, 0x80, 0x02, 0x00, 0x00, 0x40, 0x02, 0x00, 0x00,
  0xf8, 0x01, 0x00, 0x00, 0xb8, 0x01, 0x00, 0x00, 0x84, 0x01, 0x00, 0x00,
  0x38, 0x01, 0x00, 0x00, 0xf8, 0x00, 0x00, 0x00, 0xb0, 0x00, 0x00, 0x00,
  0x70, 0x00, 0x00, 0x00, 0x3c, 0x00, 0x00, 0x00, 0x04, 0x00, 0x00, 0x00,
  0x7e, 0xf8, 0xff, 0xff, 0x14, 0x00, 0x00, 0x00, 0x00, 0x00, 0x00, 0x08,
  0x10, 0x00, 0x00, 0x00, 0x14, 0x00, 0x00, 0x00, 0x04, 0x00, 0x00, 0x00,
  0x84, 0x86, 0xff, 0xff, 0x01, 0x00, 0x00, 0x00, 0x5a, 0x00, 0x00, 0x00,
  0x03, 0x00, 0x00, 0x00, 0x59, 0x00, 0x00, 0x00, 0x03, 0x00, 0x00, 0x00,
  0xff, 0xff, 0xff, 0xff, 0xb2, 0xf8, 0xff, 0xff, 0x14, 0x00, 0x00, 0x00,
  0x00, 0x00, 0x00, 0x1b, 0x10, 0x00, 0x00, 0x00, 0x14, 0x00, 0x00, 0x00,
  0x03, 0x00, 0x00, 0x00, 0xb8, 0x86, 0xff, 0xff, 0x01, 0x00, 0x00, 0x00,
  0x59, 0x00, 0x00, 0x00, 0x02, 0x00, 0x00, 0x00, 0x58, 0x00, 0x00, 0x00,
  0x02, 0x00, 0x00, 0x00, 0x7e, 0xf8, 0xff, 0xff, 0x10, 0x00, 0x00, 0x00,
  0x00, 0x00, 0x00, 0x01, 0x18, 0x00, 0x00, 0x00, 0x1c, 0x00, 0x00, 0x00,
  0x70, 0xf8, 0xff, 0xff, 0x00, 0x00, 0x00, 0x03, 0x01, 0x00, 0x00, 0x00,
  0x01, 0x00, 0x00, 0x00, 0x01, 0x00, 0x00, 0x00, 0x58, 0x00, 0x00, 0x00,
  0x03, 0x00, 0x00, 0x00, 0x57, 0x00, 0x00, 0x00, 0x04, 0x00, 0x00, 0x00,
  0x08, 0x00, 0x00, 0x00, 0x1e, 0xf9, 0xff, 0xff, 0x14, 0x00, 0x00, 0x00,
  0x00, 0x00, 0x00, 0x02, 0x20, 0x00, 0x00, 0x00, 0x24, 0x00, 0x00, 0x00,
  0x01, 0x00, 0x00, 0x00, 0x0e, 0xf9, 0xff, 0xff, 0x00, 0x00, 0x00, 0x03,
  0x01, 0x00, 0x00, 0x00, 0x01, 0x00, 0x00, 0x00, 0x01, 0x00, 0x00, 0x00,
  0x01, 0x00, 0x00, 0x00, 0x57, 0x00, 0x00, 0x00, 0x03, 0x00, 0x00, 0x00,
  0x56, 0x00, 0x00, 0x00, 0x05, 0x00, 0x00, 0x00, 0x07, 0x00, 0x00, 0x00,
  0xfe, 0xf8, 0xff, 0xff, 0x10, 0x00, 0x00, 0x00, 0x00, 0x00, 0x00, 0x01,
  0x18, 0x00, 0x00, 0x00, 0x1c, 0x00, 0x00, 0x00, 0xf0, 0xf8, 0xff, 0xff,
  0x00, 0x00, 0x00, 0x03, 0x01, 0x00, 0x00, 0x00, 0x01, 0x00, 0x00, 0x00,
  0x01, 0x00, 0x00, 0x00, 0x56, 0x00, 0x00, 0x00, 0x03, 0x00, 0x00, 0x00,
  0x55, 0x00, 0x00, 0x00, 0x09, 0x00, 0x00, 0x00, 0x06, 0x00, 0x00, 0x00,
  0x9e, 0xf9, 0xff, 0xff, 0x14, 0x00, 0x00, 0x00, 0x00, 0x00, 0x00, 0x02,
  0x24, 0x00, 0x00, 0x00, 0x28, 0x00, 0x00, 0x00, 0x01, 0x00, 0x00, 0x00,
  0x62, 0xfa, 0xff, 0xff, 0x00, 0x00, 0x00, 0x03, 0x01, 0x00, 0x00, 0x00,
  0x02, 0x00, 0x00, 0x00, 0x02, 0x00, 0x00, 0x00, 0x00, 0x00, 0x00, 0x01,
  0x01, 0x00, 0x00, 0x00, 0x55, 0x00, 0x00, 0x00, 0x03, 0x00, 0x00, 0x00,
  0x54, 0x00, 0x00, 0x00, 0x0a, 0x00, 0x00, 0x00, 0x20, 0x00, 0x00, 0x00,
  0xe6, 0xf9, 0xff, 0xff, 0x14, 0x00, 0x00, 0x00, 0x00, 0x00, 0x00, 0x16,
  0x10, 0x00, 0x00, 0x00, 0x14, 0x00, 0x00, 0x00, 0x02, 0x00, 0x00, 0x00,
  0xec, 0x87, 0xff, 0xff, 0x01, 0x00, 0x00, 0x00, 0x54, 0x00, 0x00, 0x00,
  0x02, 0x00, 0x00, 0x00, 0x53, 0x00, 0x00, 0x00, 0x01, 0x00, 0x00, 0x00,
  0xb2, 0xf9, 0xff, 0xff, 0x10, 0x00, 0x00, 0x00, 0x00, 0x00, 0x00, 0x01,
  0x18, 0x00, 0x00, 0x00, 0x1c, 0x00, 0x00, 0x00, 0xa4, 0xf9, 0xff, 0xff,
  0x00, 0x00, 0x00, 0x03, 0x01, 0x00, 0x00, 0x00, 0x01, 0x00, 0x00, 0x00,
  0x01, 0x00, 0x00, 0x00, 0x53, 0x00, 0x00, 0x00, 0x03, 0x00, 0x00, 0x00,
  0x52, 0x00, 0x00, 0x00, 0x0b, 0x00, 0x00, 0x00, 0x1f, 0x00, 0x00, 0x00,
  0x52, 0xfa, 0xff, 0xff, 0x14, 0x00, 0x00, 0x00, 0x00, 0x00, 0x00, 0x02,
  0x20, 0x00, 0x00, 0x00, 0x24, 0x00, 0x00, 0x00, 0x01, 0x00, 0x00, 0x00,
  0x42, 0xfa, 0xff, 0xff, 0x00, 0x00, 0x00, 0x03, 0x01, 0x00, 0x00, 0x00,
  0x01, 0x00, 0x00, 0x00, 0x01, 0x00, 0x00, 0x00, 0x01, 0x00, 0x00, 0x00,
  0x52, 0x00, 0x00, 0x00, 0x03, 0x00, 0x00, 0x00, 0x51, 0x00, 0x00, 0x00,
  0x0c, 0x00, 0x00, 0x00, 0x1e, 0x00, 0x00, 0x00, 0x32, 0xfa, 0xff, 0xff,
  0x10, 0x00, 0x00, 0x00, 0x00, 0x00, 0x00, 0x01, 0x18, 0x00, 0x00, 0x00,
  0x1c, 0x00, 0x00, 0x00, 0x24, 0xfa, 0xff, 0xff, 0x00, 0x00, 0x00, 0x03,
  0x01, 0x00, 0x00, 0x00, 0x01, 0x00, 0x00, 0x00, 0x01, 0x00, 0x00, 0x00,
  0x51, 0x00, 0x00, 0x00, 0x03, 0x00, 0x00, 0x00, 0x50, 0x00, 0x00, 0x00,
  0x0d, 0x00, 0x00, 0x00, 0x1d, 0x00, 0x00, 0x00, 0xd2, 0xfa, 0xff, 0xff,
  0x14, 0x00, 0x00, 0x00, 0x00, 0x00, 0x00, 0x02, 0x20, 0x00, 0x00, 0x00,
  0x24, 0x00, 0x00, 0x00, 0x01, 0x00, 0x00, 0x00, 0xc2, 0xfa, 0xff, 0xff,
  0x00, 0x00, 0x00, 0x03, 0x01, 0x00, 0x00, 0x00, 0x01, 0x00, 0x00, 0x00,
  0x01, 0x00, 0x00, 0x00, 0x01, 0x00, 0x00, 0x00, 0x50, 0x00, 0x00, 0x00,
  0x03, 0x00, 0x00, 0x00, 0x4f, 0x00, 0x00, 0x00, 0x0e, 0x00, 0x00, 0x00,
  0x1c, 0x00, 0x00, 0x00, 0xb2, 0xfa, 0xff, 0xff, 0x10, 0x00, 0x00, 0x00,
  0x00, 0x00, 0x00, 0x01, 0x18, 0x00, 0x00, 0x00, 0x1c, 0x00, 0x00, 0x00,
  0xa4, 0xfa, 0xff, 0xff, 0x00, 0x00, 0x00, 0x03, 0x01, 0x00, 0x00, 0x00,
  0x01, 0x00, 0x00, 0x00, 0x01, 0x00, 0x00, 0x00, 0x4f, 0x00, 0x00, 0x00,
  0x03, 0x00, 0x00, 0x00, 0x4e, 0x00, 0x00, 0x00, 0x0f, 0x00, 0x00, 0x00,
  0x1b, 0x00, 0x00, 0x00, 0x52, 0xfb, 0xff, 0xff, 0x14, 0x00, 0x00, 0x00,
  0x00, 0x00, 0x00, 0x02, 0x20, 0x00, 0x00, 0x00, 0x24, 0x00, 0x00, 0x00,
  0x01, 0x00, 0x00, 0x00, 0x42, 0xfb, 0xff, 0xff, 0x00, 0x00, 0x00, 0x03,
  0x01, 0x00, 0x00, 0x00, 0x01, 0x00, 0x00, 0x00, 0x01, 0x00, 0x00, 0x00,
  0x01, 0x00, 0x00, 0x00, 0x4e, 0x00, 0x00, 0x00, 0x03, 0x00, 0x00, 0x00,
  0x4d, 0x00, 0x00, 0x00, 0x10, 0x00, 0x00, 0x00, 0x1a, 0x00, 0x00, 0x00,
  0x32, 0xfb, 0xff, 0xff, 0x10, 0x00, 0x00, 0x00, 0x00, 0x00, 0x00, 0x01,
  0x18, 0x00, 0x00, 0x00, 0x1c, 0x00, 0x00, 0x00, 0x24, 0xfb, 0xff, 0xff,
  0x00, 0x00, 0x00, 0x03, 0x01, 0x00, 0x00, 0x00, 0x01, 0x00, 0x00, 0x00,
  0x01, 0x00, 0x00, 0x00, 0x4d, 0x00, 0x00, 0x00, 0x03, 0x00, 0x00, 0x00,
  0x4c, 0x00, 0x00, 0x00, 0x11, 0x00, 0x00, 0x00, 0x19, 0x00, 0x00, 0x00,
  0xd2, 0xfb, 0xff, 0xff, 0x14, 0x00, 0x00, 0x00, 0x00, 0x00, 0x00, 0x02,
  0x20, 0x00, 0x00, 0x00, 0x24, 0x00, 0x00, 0x00, 0x01, 0x00, 0x00, 0x00,
  0xc2, 0xfb, 0xff, 0xff, 0x00, 0x00, 0x00, 0x03, 0x01, 0x00, 0x00, 0x00,
  0x01, 0x00, 0x00, 0x00, 0x01, 0x00, 0x00, 0x00, 0x01, 0x00, 0x00, 0x00,
  0x4c, 0x00, 0x00, 0x00, 0x03, 0x00, 0x00, 0x00, 0x4b, 0x00, 0x00, 0x00,
  0x12, 0x00, 0x00, 0x00, 0x18, 0x00, 0x00, 0x00, 0xb2, 0xfb, 0xff, 0xff,
  0x10, 0x00, 0x00, 0x00, 0x00, 0x00, 0x00, 0x01, 0x18, 0x00, 0x00, 0x00,
  0x1c, 0x00, 0x00, 0x00, 0xa4, 0xfb, 0xff, 0xff, 0x00, 0x00, 0x00, 0x03,
  0x01, 0x00, 0x00, 0x00, 0x01, 0x00, 0x00, 0x00, 0x01, 0x00, 0x00, 0x00,
  0x4b, 0x00, 0x00, 0x00, 0x03, 0x00, 0x00, 0x00, 0x4a, 0x00, 0x00, 0x00,
  0x13, 0x00, 0x00, 0x00, 0x17, 0x00, 0x00, 0x00, 0x52, 0xfc, 0xff, 0xff,
  0x14, 0x00, 0x00, 0x00, 0x00, 0x00, 0x00, 0x02, 0x20, 0x00, 0x00, 0x00,
  0x24, 0x00, 0x00, 0x00, 0x01, 0x00, 0x00, 0x00, 0x42, 0xfc, 0xff, 0xff,
  0x00, 0x00, 0x00, 0x03, 0x01, 0x00, 0x00, 0x00, 0x01, 0x00, 0x00, 0x00,
  0x01, 0x00, 0x00, 0x00, 0x01, 0x00, 0x00, 0x00, 0x4a, 0x00, 0x00, 0x00,
  0x03, 0x00, 0x00, 0x00, 0x49, 0x00, 0x00, 0x00, 0x14, 0x00, 0x00, 0x00,
  0x16, 0x00, 0x00, 0x00, 0x32, 0xfc, 0xff, 0xff, 0x10, 0x00, 0x00, 0x00,
  0x00, 0x00, 0x00, 0x01, 0x18, 0x00, 0x00, 0x00, 0x1c, 0x00, 0x00, 0x00,
  0x24, 0xfc, 0xff, 0xff, 0x00, 0x00, 0x00, 0x03, 0x01, 0x00, 0x00, 0x00,
  0x01, 0x00, 0x00, 0x00, 0x01, 0x00, 0x00, 0x00, 0x49, 0x00, 0x00, 0x00,
  0x03, 0x00, 0x00, 0x00, 0x48, 0x00, 0x00, 0x00, 0x21, 0x00, 0x00, 0x00,
  0x15, 0x00, 0x00, 0x00, 0xd2, 0xfc, 0xff, 0xff, 0x14, 0x00, 0x00, 0x00,
  0x00, 0x00, 0x00, 0x02, 0x24, 0x00, 0x00, 0x00, 0x28, 0x00, 0x00, 0x00,
  0x01, 0x00, 0x00, 0x00, 0x96, 0xfd, 0xff, 0xff, 0x00, 0x00, 0x00, 0x03,
  0x01, 0x00, 0x00, 0x00, 0x02, 0x00, 0x00, 0x00, 0x02, 0x00, 0x00, 0x00,
  0x00, 0x00, 0x00, 0x01, 0x01, 0x00, 0x00, 0x00, 0x48, 0x00, 0x00, 0x00,
  0x03, 0x00, 0x00, 0x00, 0x47, 0x00, 0x00, 0x00, 0x22, 0x00, 0x00, 0x00,
  0x28, 0x00, 0x00, 0x00, 0x1a, 0xfd, 0xff, 0xff, 0x14, 0x00, 0x00, 0x00,
  0x00, 0x00, 0x00, 0x16, 0x10, 0x00, 0x00, 0x00, 0x14, 0x00, 0x00, 0x00,
  0x02, 0x00, 0x00, 0x00, 0x20, 0x8b, 0xff, 0xff, 0x01, 0x00, 0x00, 0x00,
  0x47, 0x00, 0x00, 0x00, 0x02, 0x00, 0x00, 0x00, 0x46, 0x00, 0x00, 0x00,
  0x01, 0x00, 0x00, 0x00, 0xe6, 0xfc, 0xff, 0xff, 0x10, 0x00, 0x00, 0x00,
  0x00, 0x00, 0x00, 0x01, 0x18, 0x00, 0x00, 0x00, 0x1c, 0x00, 0x00, 0x00,
  0xd8, 0xfc, 0xff, 0xff, 0x00, 0x00, 0x00, 0x03, 0x01, 0x00, 0x00, 0x00,
  0x01, 0x00, 0x00, 0x00, 0x01, 0x00, 0x00, 0x00, 0x46, 0x00, 0x00, 0x00,
  0x03, 0x00, 0x00, 0x00, 0x45, 0x00, 0x00, 0x00, 0x23, 0x00, 0x00, 0x00,
  0x27, 0x00, 0x00, 0x00, 0x86, 0xfd, 0xff, 0xff, 0x14, 0x00, 0x00, 0x00,
  0x00, 0x00, 0x00, 0x02, 0x20, 0x00, 0x00, 0x00, 0x24, 0x00, 0x00, 0x00,
  0x01, 0x00, 0x00, 0x00, 0x76, 0xfd, 0xff, 0xff, 0x00, 0x00, 0x00, 0x03,
  0x01, 0x00, 0x00, 0x00, 0x01, 0x00, 0x00, 0x00, 0x01, 0x00, 0x00, 0x00,
  0x01, 0x00, 0x00, 0x00, 0x45, 0x00, 0x00, 0x00, 0x03, 0x00, 0x00, 0x00,
  0x44, 0x00, 0x00, 0x00, 0x24, 0x00, 0x00, 0x00, 0x26, 0x00, 0x00, 0x00,
  0x66, 0xfd, 0xff, 0xff, 0x10, 0x00, 0x00, 0x00, 0x00, 0x00, 0x00, 0x01,
  0x18, 0x00, 0x00, 0x00, 0x1c, 0x00, 0x00, 0x00, 0x58, 0xfd, 0xff, 0xff,
  0x00, 0x00, 0x00, 0x03, 0x01, 0x00, 0x00, 0x00, 0x01, 0x00, 0x00, 0x00,
  0x01, 0x00, 0x00, 0x00, 0x44, 0x00, 0x00, 0x00, 0x03, 0x00, 0x00, 0x00,
  0x43, 0x00, 0x00, 0x00, 0x29, 0x00, 0x00, 0x00, 0x25, 0x00, 0x00, 0x00,
  0x06, 0xfe, 0xff, 0xff, 0x14, 0x00, 0x00, 0x00, 0x00, 0x00, 0x00, 0x02,
  0x24, 0x00, 0x00, 0x00, 0x28, 0x00, 0x00, 0x00, 0x01, 0x00, 0x00, 0x00,
  0xca, 0xfe, 0xff, 0xff, 0x00, 0x00, 0x00, 0x03, 0x01, 0x00, 0x00, 0x00,
  0x02, 0x00, 0x00, 0x00, 0x02, 0x00, 0x00, 0x00, 0x00, 0x00, 0x00, 0x01,
  0x01, 0x00, 0x00, 0x00, 0x43, 0x00, 0x00, 0x00, 0x03, 0x00, 0x00, 0x00,
  0x42, 0x00, 0x00, 0x00, 0x2a, 0x00, 0x00, 0x00, 0x30, 0x00, 0x00, 0x00,
  0x4e, 0xfe, 0xff, 0xff, 0x14, 0x00, 0x00, 0x00, 0x00, 0x00, 0x00, 0x16,
  0x10, 0x00, 0x00, 0x00, 0x14, 0x00, 0x00, 0x00, 0x02, 0x00, 0x00, 0x00,
  0x54, 0x8c, 0xff, 0xff, 0x01, 0x00, 0x00, 0x00, 0x42, 0x00, 0x00, 0x00,
  0x02, 0x00, 0x00, 0x00, 0x41, 0x00, 0x00, 0x00, 0x01, 0x00, 0x00, 0x00,
  0x1a, 0xfe, 0xff, 0xff, 0x10, 0x00, 0x00, 0x00, 0x00, 0x00, 0x00, 0x01,
  0x18, 0x00, 0x00, 0x00, 0x1c, 0x00, 0x00, 0x00, 0x0c, 0xfe, 0xff, 0xff,
  0x00, 0x00, 0x00, 0x03, 0x01, 0x00, 0x00, 0x00, 0x01, 0x00, 0x00, 0x00,
  0x01, 0x00, 0x00, 0x00, 0x41, 0x00, 0x00, 0x00, 0x03, 0x00, 0x00, 0x00,
  0x40, 0x00, 0x00, 0x00, 0x2b, 0x00, 0x00, 0x00, 0x2f, 0x00, 0x00, 0x00,
  0xba, 0xfe, 0xff, 0xff, 0x14, 0x00, 0x00, 0x00, 0x00, 0x00, 0x00, 0x02,
  0x20, 0x00, 0x00, 0x00, 0x24, 0x00, 0x00, 0x00, 0x01, 0x00, 0x00, 0x00,
  0xaa, 0xfe, 0xff, 0xff, 0x00, 0x00, 0x00, 0x03, 0x01, 0x00, 0x00, 0x00,
  0x01, 0x00, 0x00, 0x00, 0x01, 0x00, 0x00, 0x00, 0x01, 0x00, 0x00, 0x00,
  0x40, 0x00, 0x00, 0x00, 0x03, 0x00, 0x00, 0x00, 0x3f, 0x00, 0x00, 0x00,
  0x2c, 0x00, 0x00, 0x00, 0x2e, 0x00, 0x00, 0x00, 0x9a, 0xfe, 0xff, 0xff,
  0x10, 0x00, 0x00, 0x00, 0x00, 0x00, 0x00, 0x01, 0x18, 0x00, 0x00, 0x00,
  0x1c, 0x00, 0x00, 0x00, 0x8c, 0xfe, 0xff, 0xff, 0x00, 0x00, 0x00, 0x03,
  0x01, 0x00, 0x00, 0x00, 0x01, 0x00, 0x00, 0x00, 0x01, 0x00, 0x00, 0x00,
  0x3f, 0x00, 0x00, 0x00, 0x03, 0x00, 0x00, 0x00, 0x3e, 0x00, 0x00, 0x00,
  0x31, 0x00, 0x00, 0x00, 0x2d, 0x00, 0x00, 0x00, 0x3a, 0xff, 0xff, 0xff,
  0x24, 0x00, 0x00, 0x00, 0x00, 0x00, 0x00, 0x02, 0x34, 0x00, 0x00, 0x00,
  0x38, 0x00, 0x00, 0x00, 0x01, 0x00, 0x00, 0x00, 0x00, 0x00, 0x0e, 0x00,
  0x18, 0x00, 0x17, 0x00, 0x10, 0x00, 0x0c, 0x00, 0x08, 0x00, 0x07, 0x00,
  0x0e, 0x00, 0x00, 0x00, 0x00, 0x00, 0x00, 0x03, 0x01, 0x00, 0x00, 0x00,
  0x02, 0x00, 0x00, 0x00, 0x02, 0x00, 0x00, 0x00, 0x00, 0x00, 0x00, 0x01,
  0x01, 0x00, 0x00, 0x00, 0x3e, 0x00, 0x00, 0x00, 0x03, 0x00, 0x00, 0x00,
  0x3d, 0x00, 0x00, 0x00, 0x32, 0x00, 0x00, 0x00, 0x34, 0x00, 0x00, 0x00,
  0x92, 0xff, 0xff, 0xff, 0x14, 0x00, 0x00, 0x00, 0x00, 0x00, 0x00, 0x16,
  0x10, 0x00, 0x00, 0x00, 0x14, 0x00, 0x00, 0x00, 0x02, 0x00, 0x00, 0x00,
  0x98, 0x8d, 0xff, 0xff, 0x01, 0x00, 0x00, 0x00, 0x3d, 0x00, 0x00, 0x00,
  0x02, 0x00, 0x00, 0x00, 0x3c, 0x00, 0x00, 0x00, 0x01, 0x00, 0x00, 0x00,
  0x5e, 0xff, 0xff, 0xff, 0x10, 0x00, 0x00, 0x00, 0x00, 0x00, 0x00, 0x01,
  0x18, 0x00, 0x00, 0x00, 0x1c, 0x00, 0x00, 0x00, 0x50, 0xff, 0xff, 0xff,
  0x00, 0x00, 0x00, 0x03, 0x01, 0x00, 0x00, 0x00, 0x01, 0x00, 0x00, 0x00,
  0x01, 0x00, 0x00, 0x00, 0x3c, 0x00, 0x00, 0x00, 0x03, 0x00, 0x00, 0x00,
  0x3b, 0x00, 0x00, 0x00, 0x35, 0x00, 0x00, 0x00, 0x33, 0x00, 0x00, 0x00,
  0x00, 0x00, 0x0e, 0x00, 0x1a, 0x00, 0x14, 0x00, 0x10, 0x00, 0x0c, 0x00,
  0x0b, 0x00, 0x04, 0x00, 0x0e, 0x00, 0x00, 0x00, 0x24, 0x00, 0x00, 0x00,
  0x00, 0x00, 0x00, 0x02, 0x30, 0x00, 0x00, 0x00, 0x34, 0x00, 0x00, 0x00,
  0x01, 0x00, 0x00, 0x00, 0x00, 0x00, 0x0e, 0x00, 0x14, 0x00, 0x00, 0x00,
  0x10, 0x00, 0x0c, 0x00, 0x08, 0x00, 0x07, 0x00, 0x0e, 0x00, 0x00, 0x00,
  0x00, 0x00, 0x00, 0x03, 0x01, 0x00, 0x00, 0x00, 0x01, 0x00, 0x00, 0x00,
  0x01, 0x00, 0x00, 0x00, 0x01, 0x00, 0x00, 0x00, 0x3b, 0x00, 0x00, 0x00,
  0x03, 0x00, 0x00, 0x00, 0x3a, 0x00, 0x00, 0x00, 0x36, 0x00, 0x00, 0x00,
  0x38, 0x00, 0x00, 0x00, 0x00, 0x00, 0x0e, 0x00, 0x14, 0x00, 0x00, 0x00,
  0x10, 0x00, 0x0c, 0x00, 0x0b, 0x00, 0x04, 0x00, 0x0e, 0x00, 0x00, 0x00,
  0x1c, 0x00, 0x00, 0x00, 0x00, 0x00, 0x00, 0x01, 0x24, 0x00, 0x00, 0x00,
  0x28, 0x00, 0x00, 0x00, 0x0c, 0x00, 0x10, 0x00, 0x00, 0x00, 0x0c, 0x00,
  0x08, 0x00, 0x07, 0x00, 0x0c, 0x00, 0x00, 0x00, 0x00, 0x00, 0x00, 0x03,
  0x02, 0x00, 0x00, 0x00, 0x02, 0x00, 0x00, 0x00, 0x01, 0x00, 0x00, 0x00,
  0x3a, 0x00, 0x00, 0x00, 0x03, 0x00, 0x00, 0x00, 0x00, 0x00, 0x00, 0x00,
  0x39, 0x00, 0x00, 0x00, 0x37, 0x00, 0x00, 0x00, 0x01, 0x00, 0x00, 0x00,
  0x5a, 0x00, 0x00, 0x00, 0x01, 0x00, 0x00, 0x00, 0x00, 0x00, 0x00, 0x00,
  0x5b, 0x00, 0x00, 0x00, 0x98, 0x71, 0x00, 0x00, 0x24, 0x71, 0x00, 0x00,
  0xa0, 0x70, 0x00, 0x00, 0x38, 0x70, 0x00, 0x00, 0x6c, 0x6d, 0x00, 0x00,
  0x00, 0x6a, 0x00, 0x00, 0x24, 0x67, 0x00, 0x00, 0x48, 0x64, 0x00, 0x00,
  0x6c, 0x61, 0x00, 0x00, 0xa0, 0x5e, 0x00, 0x00, 0xa8, 0x5c, 0x00, 0x00,
  0x10, 0x5b, 0x00, 0x00, 0xf0, 0x58, 0x00, 0x00, 0x58, 0x57, 0x00, 0x00,
  0x38, 0x55, 0x00, 0x00, 0xa0, 0x53, 0x00, 0x00, 0x80, 0x51, 0x00, 0x00,
  0xe8, 0x4f, 0x00, 0x00, 0xc8, 0x4d, 0x00, 0x00, 0x30, 0x4c, 0x00, 0x00,
  0x10, 0x4a, 0x00, 0x00, 0x68, 0x48, 0x00, 0x00, 0xc4, 0x46, 0x00, 0x00,
  0x20, 0x45, 0x00, 0x00, 0x7c, 0x43, 0x00, 0x00, 0xd8, 0x41, 0x00, 0x00,
  0x34, 0x40, 0x00, 0x00, 0x90, 0x3e, 0x00, 0x00, 0xec, 0x3c, 0x00, 0x00,
  0x48, 0x3b, 0x00, 0x00, 0xa4, 0x39, 0x00, 0x00, 0x00, 0x38, 0x00, 0x00,
  0x5c, 0x36, 0x00, 0x00, 0xc8, 0x34, 0x00, 0x00, 0x70, 0x33, 0x00, 0x00,
  0x78, 0x32, 0x00, 0x00, 0xf8, 0x30, 0x00, 0x00, 0xf0, 0x2f, 0x00, 0x00,
  0xe4, 0x2e, 0x00, 0x00, 0xd8, 0x2d, 0x00, 0x00, 0xcc, 0x2c, 0x00, 0x00,
  0xd0, 0x2b, 0x00, 0x00, 0xc0, 0x2a, 0x00, 0x00, 0x10, 0x2a, 0x00, 0x00,
  0xd8, 0x28, 0x00, 0x00, 0x18, 0x28, 0x00, 0x00, 0x54, 0x27, 0x00, 0x00,
  0x90, 0x26, 0x00, 0x00, 0xcc, 0x25, 0x00, 0x00, 0x18, 0x25, 0x00, 0x00,
  0x28, 0x24, 0x00, 0x00, 0x88, 0x23, 0x00, 0x00, 0xec, 0x22, 0x00, 0x00,
  0x60, 0x22, 0x00, 0x00, 0x90, 0x21, 0x00, 0x00, 0x10, 0x21, 0x00, 0x00,
  0x8c, 0x20, 0x00, 0x00, 0x18, 0x20, 0x00, 0x00, 0x24, 0x1f, 0x00, 0x00,
  0x20, 0x1e, 0x00, 0x00, 0x1c, 0x1d, 0x00, 0x00, 0x90, 0x1c, 0x00, 0x00,
  0x8c, 0x1b, 0x00, 0x00, 0x88, 0x1a, 0x00, 0x00, 0x5c, 0x19, 0x00, 0x00,
  0x58, 0x18, 0x00, 0x00, 0xcc, 0x17, 0x00, 0x00, 0xc8, 0x16, 0x00, 0x00,
  0xc4, 0x15, 0x00, 0x00, 0x98, 0x14, 0x00, 0x00, 0x94, 0x13, 0x00, 0x00,
  0x08, 0x13, 0x00, 0x00, 0x04, 0x12, 0x00, 0x00, 0x00, 0x11, 0x00, 0x00,
  0xd4, 0x0f, 0x00, 0x00, 0xd0, 0x0e, 0x00, 0x00, 0xa4, 0x0d, 0x00, 0x00,
  0xa0, 0x0c, 0x00, 0x00, 0x74, 0x0b, 0x00, 0x00, 0x70, 0x0a, 0x00, 0x00,
  0x3c, 0x09, 0x00, 0x00, 0x30, 0x08, 0x00, 0x00, 0xfc, 0x06, 0x00, 0x00,
  0xf0, 0x05, 0x00, 0x00, 0x64, 0x05, 0x00, 0x00, 0x58, 0x04, 0x00, 0x00,
  0x4c, 0x03, 0x00, 0x00, 0x18, 0x02, 0x00, 0x00, 0x0c, 0x01, 0x00, 0x00,
  0x80, 0x00, 0x00, 0x00, 0x04, 0x00, 0x00, 0x00, 0xea, 0x8f, 0xff, 0xff,
  0x00, 0x00, 0x00, 0x01, 0x18, 0x00, 0x00, 0x00, 0x20, 0x00, 0x00, 0x00,
  0x3c, 0x00, 0x00, 0x00, 0x5b, 0x00, 0x00, 0x00, 0x00, 0x00, 0x00, 0x09,
  0x50, 0x00, 0x00, 0x00, 0x02, 0x00, 0x00, 0x00, 0xff, 0xff, 0xff, 0xff,
  0x02, 0x00, 0x00, 0x00, 0xcc, 0x8f, 0xff, 0xff, 0x08, 0x00, 0x00, 0x00,
  0x10, 0x00, 0x00, 0x00, 0x01, 0x00, 0x00, 0x00, 0x00, 0x00, 0x00, 0x00,
  0x00, 0x00, 0x00, 0x00, 0x01, 0x00, 0x00, 0x00, 0x91, 0xbe, 0x06, 0x32,
  0x19, 0x00, 0x00, 0x00, 0x53, 0x74, 0x61, 0x74, 0x65, 0x66, 0x75, 0x6c,
  0x50, 0x61, 0x72, 0x74, 0x69, 0x74, 0x69, 0x6f, 0x6e, 0x65, 0x64, 0x43,
  0x61, 0x6c, 0x6c, 0x3a, 0x30, 0x00, 0x00, 0x00, 0x02, 0x00, 0x00, 0x00,
  0x01, 0x00, 0x00, 0x00, 0x02, 0x00, 0x00, 0x00, 0x62, 0x90, 0xff, 0xff,
  0x00, 0x00, 0x00, 0x01, 0x18, 0x00, 0x00, 0x00, 0x20, 0x00, 0x00, 0x00,
  0x40, 0x00, 0x00, 0x00, 0x5a, 0x00, 0x00, 0x00, 0x00, 0x00, 0x00, 0x09,
  0x60, 0x00, 0x00, 0x00, 0x02, 0x00, 0x00, 0x00, 0xff, 0xff, 0xff, 0xff,
  0x33, 0x00, 0x00, 0x00, 0x44, 0x90, 0xff, 0xff, 0x08, 0x00, 0x00, 0x00,
  0x14, 0x00, 0x00, 0x00, 0x01, 0x00, 0x00, 0x00, 0xff, 0xff, 0xff, 0xff,
  0xff, 0xff, 0xff, 0xff, 0x00, 0x00, 0x00, 0x00, 0x01, 0x00, 0x00, 0x00,
  0xa1, 0xbe, 0x06, 0x32, 0x27, 0x00, 0x00, 0x00, 0x6d, 0x6f, 0x64, 0x65,
  0x6c, 0x5f, 0x38, 0x2f, 0x67, 0x6c, 0x6f, 0x62, 0x61, 0x6c, 0x5f, 0x61,
  0x76, 0x65, 0x72, 0x61, 0x67, 0x65, 0x5f, 0x70, 0x6f, 0x6f, 0x6c, 0x69,
  0x6e, 0x67, 0x32, 0x64, 0x5f, 0x38, 0x2f, 0x4d, 0x65, 0x61, 0x6e, 0x00,
  0x02, 0x00, 0x00, 0x00, 0x01, 0x00, 0x00, 0x00, 0x33, 0x00, 0x00, 0x00,
  0xea, 0x90, 0xff, 0xff, 0x00, 0x00, 0x00, 0x01, 0x18, 0x00, 0x00, 0x00,
  0x28, 0x00, 0x00, 0x00, 0x48, 0x00, 0x00, 0x00, 0x59, 0x00, 0x00, 0x00,
  0x00, 0x00, 0x00, 0x09, 0xd8, 0x00, 0x00, 0x00, 0x04, 0x00, 0x00, 0x00,
  0xff, 0xff, 0xff, 0xff, 0x03, 0x00, 0x00, 0x00, 0x03, 0x00, 0x00, 0x00,
  0x33, 0x00, 0x00, 0x00, 0xd4, 0x90, 0xff, 0xff, 0x08, 0x00, 0x00, 0x00,
  0x14, 0x00, 0x00, 0x00, 0x01, 0x00, 0x00, 0x00, 0xff, 0xff, 0xff, 0xff,
  0xff, 0xff, 0xff, 0xff, 0x00, 0x00, 0x00, 0x00, 0x01, 0x00, 0x00, 0x00,
  0xb7, 0xbe, 0x06, 0x32, 0x94, 0x00, 0x00, 0x00, 0x6d, 0x6f, 0x64, 0x65,
  0x6c, 0x5f, 0x38, 0x2f, 0x63, 0x6f, 0x6e, 0x76, 0x5f, 0x70, 0x77, 0x5f,
  0x31, 0x33, 0x5f, 0x72, 0x65, 0x6c, 0x75, 0x2f, 0x52, 0x65, 0x6c, 0x75,
  0x36, 0x3b, 0x6d, 0x6f, 0x64, 0x65, 0x6c, 0x5f, 0x38, 0x2f, 0x63, 0x6f,
  0x6e, 0x76, 0x5f, 0x70, 0x77, 0x5f, 0x31, 0x33, 0x5f, 0x62, 0x6e, 0x2f,
  0x46, 0x75, 0x73, 0x65, 0x64, 0x42, 0x61, 0x74, 0x63, 0x68, 0x4e, 0x6f,
  0x72, 0x6d, 0x56, 0x33, 0x3b, 0x6d, 0x6f, 0x64, 0x65, 0x6c, 0x5f, 0x38,
  0x2f, 0x63, 0x6f, 0x6e, 0x76, 0x5f, 0x64, 0x77, 0x5f, 0x31, 0x33, 0x5f,
  0x62, 0x6e, 0x2f, 0x46, 0x75, 0x73, 0x65, 0x64, 0x42, 0x61, 0x74, 0x63,
  0x68, 0x4e, 0x6f, 0x72, 0x6d, 0x56, 0x33, 0x2f, 0x52, 0x65, 0x61, 0x64,
  0x56, 0x61, 0x72, 0x69, 0x61, 0x62, 0x6c, 0x65, 0x4f, 0x70, 0x3b, 0x6d,
  0x6f, 0x64, 0x65, 0x6c, 0x5f, 0x38, 0x2f, 0x63, 0x6f, 0x6e, 0x76, 0x5f,
  0x70, 0x77, 0x5f, 0x31, 0x33, 0x2f, 0x43, 0x6f, 0x6e, 0x76, 0x32, 0x44,
  0x00, 0x00, 0x00, 0x00, 0x04, 0x00, 0x00, 0x00, 0x01, 0x00, 0x00, 0x00,
  0x03, 0x00, 0x00, 0x00, 0x03, 0x00, 0x00, 0x00, 0x33, 0x00, 0x00, 0x00,
  0xf2, 0x91, 0xff, 0xff, 0x00, 0x00, 0x00, 0x01, 0x18, 0x00, 0x00, 0x00,
  0x28, 0x00, 0x00, 0x00, 0x48, 0x00, 0x00, 0x00, 0x58, 0x00, 0x00, 0x00,
  0x00, 0x00, 0x00, 0x09, 0x00, 0x01, 0x00, 0x00, 0x04, 0x00, 0x00, 0x00,
  0xff, 0xff, 0xff, 0xff, 0x03, 0x00, 0x00, 0x00, 0x03, 0x00, 0x00, 0x00,
  0x33, 0x00, 0x00, 0x00, 0xdc, 0x91, 0xff, 0xff, 0x08, 0x00, 0x00, 0x00,
  0x14, 0x00, 0x00, 0x00, 0x01, 0x00, 0x00, 0x00, 0xff, 0xff, 0xff, 0xff,
  0xff, 0xff, 0xff, 0xff, 0x00, 0x00, 0x00, 0x00, 0x01, 0x00, 0x00, 0x00,
  0xfd, 0xbe, 0x06, 0x32, 0xbe, 0x00, 0x00, 0x00, 0x6d, 0x6f, 0x64, 0x65,
  0x6c, 0x5f, 0x38, 0x2f, 0x63, 0x6f, 0x6e, 0x76, 0x5f, 0x64, 0x77, 0x5f,
  0x31, 0x33, 0x5f, 0x72, 0x65, 0x6c, 0x75, 0x2f, 0x52, 0x65, 0x6c, 0x75,
  0x36, 0x3b, 0x6d, 0x6f, 0x64, 0x65, 0x6c, 0x5f, 0x38, 0x2f, 0x63, 0x6f,
  0x6e, 0x76, 0x5f, 0x64, 0x77, 0x5f, 0x31, 0x33, 0x5f, 0x62, 0x6e, 0x2f,
  0x46, 0x75, 0x73, 0x65, 0x64, 0x42, 0x61, 0x74, 0x63, 0x68, 0x4e, 0x6f,
  0x72, 0x6d, 0x56, 0x33, 0x3b, 0x6d, 0x6f, 0x64, 0x65, 0x6c, 0x5f, 0x38,
  0x2f, 0x63, 0x6f, 0x6e, 0x76, 0x5f, 0x64, 0x77, 0x5f, 0x31, 0x33, 0x5f,
  0x62, 0x6e, 0x2f, 0x46, 0x75, 0x73, 0x65, 0x64, 0x42, 0x61, 0x74, 0x63,
  0x68, 0x4e, 0x6f, 0x72, 0x6d, 0x56, 0x33, 0x2f, 0x52, 0x65, 0x61, 0x64,
  0x56, 0x61, 0x72, 0x69, 0x61, 0x62, 0x6c, 0x65, 0x4f, 0x70, 0x3b, 0x6d,
  0x6f, 0x64, 0x65, 0x6c, 0x5f, 0x38, 0x2f, 0x63, 0x6f, 0x6e, 0x76, 0x5f,
  0x64, 0x77, 0x5f, 0x31, 0x33, 0x2f, 0x64, 0x65, 0x70, 0x74, 0x68, 0x77,
  0x69, 0x73, 0x65, 0x3b, 0x6d, 0x6f, 0x64, 0x65, 0x6c, 0x5f, 0x38, 0x2f,
  0x63, 0x6f, 0x6e, 0x76, 0x5f, 0x70, 0x77, 0x5f, 0x31, 0x33, 0x5f, 0x62,
  0x6e, 0x2f, 0x46, 0x75, 0x73, 0x65, 0x64, 0x42, 0x61, 0x74, 0x63, 0x68,
  0x4e, 0x6f, 0x72, 0x6d, 0x56, 0x33, 0x00, 0x00, 0x04, 0x00, 0x00, 0x00,
  0x01, 0x00, 0x00, 0x00, 0x03, 0x00, 0x00, 0x00, 0x03, 0x00, 0x00, 0x00,
  0x33, 0x00, 0x00, 0x00, 0x22, 0x93, 0xff, 0xff, 0x00, 0x00, 0x00, 0x01,
  0x18, 0x00, 0x00, 0x00, 0x28, 0x00, 0x00, 0x00, 0x48, 0x00, 0x00, 0x00,
  0x57, 0x00, 0x00, 0x00, 0x00, 0x00, 0x00, 0x09, 0xd8, 0x00, 0x00, 0x00,
  0x04, 0x00, 0x00, 0x00, 0xff, 0xff, 0xff, 0xff, 0x03, 0x00, 0x00, 0x00,
  0x03, 0x00, 0x00, 0x00, 0x33, 0x00, 0x00, 0x00, 0x0c, 0x93, 0xff, 0xff,
  0x08, 0x00, 0x00, 0x00, 0x14, 0x00, 0x00, 0x00, 0x01, 0x00, 0x00, 0x00,
  0xff, 0xff, 0xff, 0xff, 0xff, 0xff, 0xff, 0xff, 0x00, 0x00, 0x00, 0x00,
  0x01, 0x00, 0x00, 0x00, 0x27, 0xc1, 0x06, 0x32, 0x94, 0x00, 0x00, 0x00,
  0x6d, 0x6f, 0x64, 0x65, 0x6c, 0x5f, 0x38, 0x2f, 0x63, 0x6f, 0x6e, 0x76,
  0x5f, 0x70, 0x77, 0x5f, 0x31, 0x32, 0x5f, 0x72, 0x65, 0x6c, 0x75, 0x2f,
  0x52, 0x65, 0x6c, 0x75, 0x36, 0x3b, 0x6d, 0x6f, 0x64, 0x65, 0x6c, 0x5f,
  0x38, 0x2f, 0x63, 0x6f, 0x6e, 0x76, 0x5f, 0x70, 0x77, 0x5f, 0x31, 0x32,
  0x5f, 0x62, 0x6e, 0x2f, 0x46, 0x75, 0x73, 0x65, 0x64, 0x42, 0x61, 0x74,
  0x63, 0x68, 0x4e, 0x6f, 0x72, 0x6d, 0x56, 0x33, 0x3b, 0x6d, 0x6f, 0x64,
  0x65, 0x6c, 0x5f, 0x38, 0x2f, 0x63, 0x6f, 0x6e, 0x76, 0x5f, 0x64, 0x77,
  0x5f, 0x31, 0x33, 0x5f, 0x62, 0x6e, 0x2f, 0x46, 0x75, 0x73, 0x65, 0x64,
  0x42, 0x61, 0x74, 0x63, 0x68, 0x4e, 0x6f, 0x72, 0x6d, 0x56, 0x33, 0x2f,
  0x52, 0x65, 0x61, 0x64, 0x56, 0x61, 0x72, 0x69, 0x61, 0x62, 0x6c, 0x65,
  0x4f, 0x70, 0x3b, 0x6d, 0x6f, 0x64, 0x65, 0x6c, 0x5f, 0x38, 0x2f, 0x63,
  0x6f, 0x6e, 0x76, 0x5f, 0x70, 0x77, 0x5f, 0x31, 0x32, 0x2f, 0x43, 0x6f,
  0x6e, 0x76, 0x32, 0x44, 0x00, 0x00, 0x00, 0x00, 0x04, 0x00, 0x00, 0x00,
  0x01, 0x00, 0x00, 0x00, 0x03, 0x00, 0x00, 0x00, 0x03, 0x00, 0x00, 0x00,
  0x33, 0x00, 0x00, 0x00, 0x2a, 0x94, 0xff, 0xff, 0x00, 0x00, 0x00, 0x01,
  0x18, 0x00, 0x00, 0x00, 0x28, 0x00, 0x00, 0x00, 0x48, 0x00, 0x00, 0x00,
  0x56, 0x00, 0x00, 0x00, 0x00, 0x00, 0x00, 0x09, 0xd8, 0x00, 0x00, 0x00,
  0x04, 0x00, 0x00, 0x00, 0xff, 0xff, 0xff, 0xff, 0x03, 0x00, 0x00, 0x00,
  0x03, 0x00, 0x00, 0x00, 0x19, 0x00, 0x00, 0x00, 0x14, 0x94, 0xff, 0xff,
  0x08, 0x00, 0x00, 0x00, 0x14, 0x00, 0x00, 0x00, 0x01, 0x00, 0x00, 0x00,
  0xff, 0xff, 0xff, 0xff, 0xff, 0xff, 0xff, 0xff, 0x00, 0x00, 0x00, 0x00,
  0x01, 0x00, 0x00, 0x00, 0x68, 0xc5, 0x06, 0x32, 0x97, 0x00, 0x00, 0x00,
  0x6d, 0x6f, 0x64, 0x65, 0x6c, 0x5f, 0x38, 0x2f, 0x63, 0x6f, 0x6e, 0x76,
  0x5f, 0x64, 0x77, 0x5f, 0x31, 0x32, 0x5f, 0x72, 0x65, 0x6c, 0x75, 0x2f,
  0x52, 0x65, 0x6c, 0x75, 0x36, 0x3b, 0x6d, 0x6f, 0x64, 0x65, 0x6c, 0x5f,
  0x38, 0x2f, 0x63, 0x6f, 0x6e, 0x76, 0x5f, 0x64, 0x77, 0x5f, 0x31, 0x32,
  0x5f, 0x62, 0x6e, 0x2f, 0x46, 0x75, 0x73, 0x65, 0x64, 0x42, 0x61, 0x74,
  0x63, 0x68, 0x4e, 0x6f, 0x72, 0x6d, 0x56, 0x33, 0x3b, 0x6d, 0x6f, 0x64,
  0x65, 0x6c, 0x5f, 0x38, 0x2f, 0x63, 0x6f, 0x6e, 0x76, 0x5f, 0x64, 0x77,
  0x5f, 0x31, 0x30, 0x5f, 0x62, 0x6e, 0x2f, 0x46, 0x75, 0x73, 0x65, 0x64,
  0x42, 0x61, 0x74, 0x63, 0x68, 0x4e, 0x6f, 0x72, 0x6d, 0x56, 0x33, 0x2f,
  0x52, 0x65, 0x61, 0x64, 0x56, 0x61, 0x72, 0x69, 0x61, 0x62, 0x6c, 0x65,
  0x4f, 0x70, 0x3b, 0x6d, 0x6f, 0x64, 0x65, 0x6c, 0x5f, 0x38, 0x2f, 0x63,
  0x6f, 0x6e, 0x76, 0x5f, 0x64, 0x77, 0x5f, 0x31, 0x32, 0x2f, 0x64, 0x65,
  0x70, 0x74, 0x68, 0x77, 0x69, 0x73, 0x65, 0x00, 0x04, 0x00, 0x00, 0x00,
  0x01, 0x00, 0x00, 0x00, 0x03, 0x00, 0x00, 0x00, 0x03, 0x00, 0x00, 0x00,
  0x19, 0x00, 0x00, 0x00, 0x32, 0x95, 0xff, 0xff, 0x00, 0x00, 0x00, 0x01,
  0x18, 0x00, 0x00, 0x00, 0x28, 0x00, 0x00, 0x00, 0x48, 0x00, 0x00, 0x00,
  0x55, 0x00, 0x00, 0x00, 0x00, 0x00, 0x00, 0x09, 0x58, 0x00, 0x00, 0x00,
  0x04, 0x00, 0x00, 0x00, 0xff, 0xff, 0xff, 0xff, 0x07, 0x00, 0x00, 0x00,
  0x07, 0x00, 0x00, 0x00, 0x19, 0x00, 0x00, 0x00, 0x1c, 0x95, 0xff, 0xff,
  0x08, 0x00, 0x00, 0x00, 0x14, 0x00, 0x00, 0x00, 0x01, 0x00, 0x00, 0x00,
  0xff, 0xff, 0xff, 0xff, 0xff, 0xff, 0xff, 0xff, 0x00, 0x00, 0x00, 0x00,
  0x01, 0x00, 0x00, 0x00, 0x16, 0xd6, 0x06, 0x32, 0x17, 0x00, 0x00, 0x00,
  0x6d, 0x6f, 0x64, 0x65, 0x6c, 0x5f, 0x38, 0x2f, 0x63, 0x6f, 0x6e, 0x76,
  0x5f, 0x70, 0x61, 0x64, 0x5f, 0x31, 0x32, 0x2f, 0x50, 0x61, 0x64, 0x00,
  0x04, 0x00, 0x00, 0x00, 0x01, 0x00, 0x00, 0x00, 0x07, 0x00, 0x00, 0x00,
  0x07, 0x00, 0x00, 0x00, 0x19, 0x00, 0x00, 0x00, 0xba, 0x95, 0xff, 0xff,
  0x00, 0x00, 0x00, 0x01, 0x18, 0x00, 0x00, 0x00, 0x28, 0x00, 0x00, 0x00,
  0x48, 0x00, 0x00, 0x00, 0x54, 0x00, 0x00, 0x00, 0x00, 0x00, 0x00, 0x09,
  0xd8, 0x00, 0x00, 0x00, 0x04, 0x00, 0x00, 0x00, 0xff, 0xff, 0xff, 0xff,
  0x06, 0x00, 0x00, 0x00, 0x06, 0x00, 0x00, 0x00, 0x19, 0x00, 0x00, 0x00,
  0xa4, 0x95, 0xff, 0xff, 0x08, 0x00, 0x00, 0x00, 0x14, 0x00, 0x00, 0x00,
  0x01, 0x00, 0x00, 0x00, 0xff, 0xff, 0xff, 0xff, 0xff, 0xff, 0xff, 0xff,
  0x00, 0x00, 0x00, 0x00, 0x01, 0x00, 0x00, 0x00, 0x16, 0xd6, 0x06, 0x32,
  0x94, 0x00, 0x00, 0x00, 0x6d, 0x6f, 0x64, 0x65, 0x6c, 0x5f, 0x38, 0x2f,
  0x63, 0x6f, 0x6e, 0x76, 0x5f, 0x70, 0x77, 0x5f, 0x31, 0x31, 0x5f, 0x72,
  0x65, 0x6c, 0x75, 0x2f, 0x52, 0x65, 0x6c, 0x75, 0x36, 0x3b, 0x6d, 0x6f,
  0x64, 0x65, 0x6c, 0x5f, 0x38, 0x2f, 0x63, 0x6f, 0x6e, 0x76, 0x5f, 0x70,
  0x77, 0x5f, 0x31, 0x31, 0x5f, 0x62, 0x6e, 0x2f, 0x46, 0x75, 0x73, 0x65,
  0x64, 0x42, 0x61, 0x74, 0x63, 0x68, 0x4e, 0x6f, 0x72, 0x6d, 0x56, 0x33,
  0x3b, 0x6d, 0x6f, 0x64, 0x65, 0x6c, 0x5f, 0x38, 0x2f, 0x63, 0x6f, 0x6e,
  0x76, 0x5f, 0x64, 0x77, 0x5f, 0x31, 0x30, 0x5f, 0x62, 0x6e, 0x2f, 0x46,
  0x75, 0x73, 0x65, 0x64, 0x42, 0x61, 0x74, 0x63, 0x68, 0x4e, 0x6f, 0x72,
  0x6d, 0x56, 0x33, 0x2f, 0x52, 0x65, 0x61, 0x64, 0x56, 0x61, 0x72, 0x69,
  0x61, 0x62, 0x6c, 0x65, 0x4f, 0x70, 0x3b, 0x6d, 0x6f, 0x64, 0x65, 0x6c,
